<unk>	0
<s>	0
</s>	0
▁the	-3.2648
,	-3.30678
.	-3.34897
s	-3.73334
▁to	-3.88885
▁of	-3.94356
▁and	-4.02082
▁a	-4.05473
▁in	-4.30977
▁that	-4.72158
’	-4.81686
▁is	-4.84647
-	-4.87304
▁for	-4.98835
▁on	-5.1616
▁	-5.16989
'	-5.18989
▁it	-5.22322
▁with	-5.29059
▁I	-5.3631
▁The	-5.36691
▁was	-5.37427
t	-5.47837
▁be	-5.5154
▁as	-5.53003
▁are	-5.62857
:	-5.64921
▁“	-5.65344
▁have	-5.69564
▁you	-5.70326
▁at	-5.72922
▁by	-5.72927
▁from	-5.75595
▁(	-5.78711
▁this	-5.80936
▁he	-5.83987
▁not	-5.86752
▁"	-5.8803
▁an	-5.91772
▁has	-5.96091
▁his	-5.98706
▁or	-6.02351
ing	-6.0598
)	-6.08997
▁they	-6.09162
▁said	-6.09633
▁but	-6.11426
▁we	-6.1203
▁will	-6.13581
ed	-6.21615
▁can	-6.2289
▁their	-6.2309
▁more	-6.27197
▁who	-6.30841
d	-6.32832
▁about	-6.33664
▁one	-6.3467
▁all	-6.38898
▁were	-6.40661
▁had	-6.41606
▁which	-6.42433
▁been	-6.45933
▁would	-6.4615
▁out	-6.46556
▁up	-6.50762
?	-6.59206
▁It	-6.59853
▁In	-6.60017
▁A	-6.63372
re	-6.64121
▁also	-6.66147
▁so	-6.6638
▁like	-6.66781
▁people	-6.68642
▁what	-6.69817
▁when	-6.70281
▁time	-6.71653
▁than	-6.7274
m	-6.7366
▁there	-6.74462
▁your	-6.74733
”	-6.74915
▁other	-6.77086
▁do	-6.78089
▁if	-6.78796
▁into	-6.8051
▁just	-6.80912
.”	-6.8175
▁her	-6.8246
▁some	-6.84587
▁its	-6.85794
ly	-6.85871
/	-6.86416
▁our	-6.87951
▁them	-6.88928
▁over	-6.89998
▁my	-6.91081
▁no	-6.91254
"	-6.92802
▁new	-6.93348
▁He	-6.94293
▁first	-6.94943
,”	-6.98093
▁only	-7.00317
▁But	-7.00461
er	-7.00979
▁after	-7.01443
a	-7.01679
▁two	-7.01908
;	-7.03135
e	-7.03983
▁get	-7.04267
▁could	-7.04306
▁she	-7.04388
S	-7.04717
I	-7.04919
▁This	-7.06073
▁–	-7.07492
y	-7.09962
▁—	-7.11279
."	-7.12577
▁me	-7.13053
▁how	-7.13156
▁him	-7.13881
▁most	-7.1472
▁because	-7.15531
▁now	-7.17955
▁any	-7.18063
▁years	-7.18602
▁year	-7.20387
▁make	-7.22651
▁even	-7.22992
▁these	-7.25886
▁We	-7.2651
▁way	-7.27259
▁back	-7.27351
▁-	-7.27425
,"	-7.2757
ve	-7.28458
▁And	-7.28499
▁being	-7.2966
▁where	-7.31235
▁many	-7.3199
▁then	-7.35359
▁those	-7.35874
▁much	-7.36844
▁very	-7.37342
▁last	-7.37936
!	-7.37951
▁don	-7.39638
▁know	-7.40405
▁well	-7.41187
▁work	-7.41386
▁see	-7.42265
▁think	-7.44883
▁before	-7.45592
▁[	-7.4652
▁should	-7.4674
▁use	-7.47528
▁through	-7.48177
▁made	-7.48438
ll	-7.48934
in	-7.49578
n	-7.49625
▁such	-7.50536
▁going	-7.5072
▁may	-7.50805
▁against	-7.52576
▁us	-7.53556
▁game	-7.53979
▁still	-7.54627
▁while	-7.55235
▁want	-7.55449
▁If	-7.55569
▁down	-7.5585
▁good	-7.56614
▁world	-7.57178
▁U	-7.57999
▁right	-7.58054
r	-7.59036
]	-7.59523
▁did	-7.59536
▁take	-7.59912
▁government	-7.60131
▁go	-7.60149
▁says	-7.60334
▁1	-7.61368
▁between	-7.62613
▁off	-7.62619
▁need	-7.62698
▁same	-7.63549
o	-7.64351
▁say	-7.65013
▁You	-7.65257
▁They	-7.66144
—	-7.66517
▁three	-7.66868
▁Trump	-7.66943
▁own	-7.67822
i	-7.67927
▁around	-7.68241
es	-7.68528
al	-7.68866
▁here	-7.6928
▁used	-7.69359
).	-7.69622
▁2	-7.69826
th	-7.70234
▁really	-7.70848
▁team	-7.713
▁state	-7.71416
▁part	-7.7168
▁New	-7.71857
▁That	-7.71904
The	-7.73363
▁As	-7.74446
▁long	-7.75681
▁day	-7.759
▁both	-7.76483
▁So	-7.76665
▁under	-7.7825
▁during	-7.79079
▁There	-7.79776
▁For	-7.79915
),	-7.7994
▁told	-7.80418
▁since	-7.80596
▁S	-7.81341
▁3	-7.84737
▁another	-7.86856
or	-7.87011
A	-7.87155
_	-7.88459
▁end	-7.88554
▁something	-7.88558
▁too	-7.88907
▁life	-7.88915
▁‘	-7.88955
▁come	-7.90524
▁few	-7.91142
▁public	-7.91934
▁found	-7.92199
▁things	-7.92816
▁every	-7.93768
▁next	-7.93977
▁10	-7.94398
▁might	-7.94442
▁'	-7.94525
▁never	-7.94548
▁each	-7.94743
▁high	-7.94756
▁system	-7.95507
▁lot	-7.95552
▁best	-7.9591
▁does	-7.96675
▁help	-7.97606
▁different	-7.98314
▁home	-7.98782
▁million	-7.99328
ers	-7.99348
▁number	-7.99558
com	-8.00084
▁without	-8.0014
▁including	-8.00523
▁look	-8.01303
▁set	-8.0162
▁week	-8.02746
▁show	-8.02979
▁place	-8.03041
...	-8.03104
C	-8.0314
2	-8.03797
▁man	-8.04004
▁got	-8.04616
D	-8.05008
▁support	-8.0501
g	-8.05076
▁country	-8.051
▁season	-8.05129
▁point	-8.05278
▁When	-8.05484
▁case	-8.05948
▁better	-8.05962
▁find	-8.06118
▁called	-8.06453
▁group	-8.07281
▁re	-8.0729
▁little	-8.07456
We	-8.07471
▁play	-8.08373
the	-8.08576
c	-8.09
▁great	-8.09208
▁American	-8.09259
▁police	-8.09587
▁4	-8.10107
▁percent	-8.10221
▁didn	-8.10271
▁put	-8.10474
▁She	-8.10478
▁To	-8.1075
to	-8.10977
▁data	-8.11201
▁second	-8.11327
▁far	-8.11608
▁What	-8.12289
▁left	-8.12711
k	-8.13307
▁power	-8.1334
▁women	-8.13487
▁using	-8.13632
▁change	-8.13775
▁5	-8.14466
and	-8.14501
man	-8.15295
▁C	-8.15643
▁de	-8.16499
on	-8.16575
▁B	-8.16766
▁D	-8.16911
▁On	-8.17034
▁per	-8.17686
▁company	-8.18625
▁United	-8.18902
▁thing	-8.19033
en	-8.19274
▁why	-8.19294
▁big	-8.19997
▁always	-8.20016
▁already	-8.20025
▁--	-8.2037
▁money	-8.20388
▁law	-8.20493
▁top	-8.20558
▁less	-8.20972
▁information	-8.21462
▁four	-8.22095
▁E	-8.22326
1	-8.22336
▁US	-8.22818
▁T	-8.2288
▁city	-8.22912
▁again	-8.23269
▁un	-8.23407
▁One	-8.2388
▁later	-8.23955
▁doesn	-8.24351
▁away	-8.24705
p	-8.24879
It	-8.2537
▁able	-8.25526
▁fact	-8.26462
▁least	-8.26552
▁No	-8.26829
▁though	-8.27548
▁enough	-8.28277
▁must	-8.28451
▁family	-8.28713
▁making	-8.28808
▁story	-8.29157
▁came	-8.29464
▁Mr	-8.3031
x	-8.30698
▁past	-8.31001
▁political	-8.31091
able	-8.31203
B	-8.31227
an	-8.31275
▁become	-8.31696
▁days	-8.31888
▁took	-8.32067
▁important	-8.32138
▁until	-8.32451
▁working	-8.32452
year	-8.32951
▁run	-8.32976
▁O	-8.33062
▁start	-8.33143
▁At	-8.33489
▁free	-8.33514
▁actually	-8.34027
▁won	-8.3468
▁report	-8.34808
▁real	-8.34857
▁often	-8.34872
b	-8.35045
▁give	-8.35076
▁media	-8.35489
▁ever	-8.36109
▁P	-8.36481
▁full	-8.36789
▁F	-8.36841
3	-8.36905
▁keep	-8.37316
▁according	-8.38023
▁campaign	-8.38087
▁President	-8.38135
▁R	-8.38495
h	-8.38618
▁former	-8.3896
l	-8.38981
T	-8.39265
▁small	-8.39547
G	-8.39858
▁hard	-8.40667
▁men	-8.40764
▁name	-8.41001
▁several	-8.41231
▁doing	-8.41355
▁games	-8.41364
▁having	-8.41645
▁order	-8.42125
▁today	-8.42475
▁five	-8.42504
▁example	-8.42525
▁water	-8.42745
▁early	-8.42852
▁seen	-8.42933
▁local	-8.43015
▁children	-8.4304
▁After	-8.43105
▁Obama	-8.4324
▁6	-8.43503
▁20	-8.43546
▁went	-8.43598
▁head	-8.43709
▁course	-8.43929
▁school	-8.44378
▁whether	-8.4441
▁likely	-8.44668
▁feel	-8.44928
▁side	-8.45085
▁process	-8.45362
▁done	-8.45528
▁M	-8.45578
▁open	-8.45579
▁players	-8.45665
▁future	-8.46059
▁line	-8.46246
▁business	-8.4635
R	-8.46407
▁months	-8.46901
▁kind	-8.4711
M	-8.47205
▁York	-8.48051
▁State	-8.48099
▁G	-8.48144
▁possible	-8.48463
▁president	-8.48627
▁video	-8.48639
▁human	-8.4868
▁person	-8.48804
▁States	-8.49286
▁K	-8.49366
▁yet	-8.49388
▁All	-8.49638
▁means	-8.49701
▁once	-8.49925
old	-8.5024
▁within	-8.50336
▁across	-8.50445
▁night	-8.50666
f	-8.50858
▁However	-8.50961
▁thought	-8.51195
▁House	-8.51243
▁believe	-8.51268
▁asked	-8.51558
▁problem	-8.51614
▁]	-8.51836
▁While	-8.52012
▁control	-8.52291
▁7	-8.52321
▁social	-8.52539
▁sure	-8.52719
▁known	-8.52777
▁health	-8.52797
▁times	-8.52894
▁community	-8.53086
▁getting	-8.53221
▁given	-8.53338
▁large	-8.53632
▁level	-8.53765
▁post	-8.54056
▁University	-8.54135
▁let	-8.54162
▁issue	-8.54721
▁among	-8.54964
K	-8.54968
▁call	-8.55095
▁With	-8.55235
▁W	-8.55385
ic	-8.55411
(	-8.55695
▁old	-8.55848
▁war	-8.56178
▁news	-8.56197
▁8	-8.56232
▁party	-8.56803
▁ago	-8.57143
▁America	-8.57226
▁book	-8.57236
▁18	-8.57358
▁=	-8.57367
▁move	-8.57838
▁&	-8.5804
▁idea	-8.58103
▁members	-8.58115
▁series	-8.58274
▁started	-8.58284
up	-8.58563
N	-8.58796
▁deal	-8.58872
▁market	-8.59101
ation	-8.59125
▁recent	-8.59223
▁following	-8.59254
▁pay	-8.59274
▁job	-8.59322
▁available	-8.59442
▁history	-8.59576
▁together	-8.59662
▁p	-8.59803
▁L	-8.59943
▁love	-8.60132
▁based	-8.60334
▁trying	-8.60783
▁almost	-8.60941
▁car	-8.61161
▁experience	-8.61175
P	-8.61227
us	-8.61245
▁...	-8.61293
4	-8.61505
▁isn	-8.6157
F	-8.61587
▁added	-8.61604
▁clear	-8.61719
▁question	-8.61873
▁month	-8.61933
it	-8.61961
▁live	-8.62093
▁edit	-8.62115
▁face	-8.62582
▁major	-8.62713
▁along	-8.6272
▁makes	-8.62801
▁non	-8.63067
▁looking	-8.63248
u	-8.63288
▁anything	-8.63395
▁single	-8.64012
5	-8.64119
▁try	-8.64406
▁am	-8.64413
▁care	-8.64504
▁comes	-8.64612
▁bit	-8.64836
▁John	-8.64857
▁study	-8.64881
▁area	-8.65312
▁saying	-8.65592
▁behind	-8.65941
▁military	-8.66315
▁half	-8.66441
▁hand	-8.66536
▁12	-8.66637
z	-8.66647
▁taken	-8.66714
ion	-8.67239
▁list	-8.67478
▁Clinton	-8.67781
▁national	-8.67882
▁project	-8.67912
▁current	-8.68113
▁others	-8.68172
▁program	-8.68329
is	-8.68388
▁security	-8.68551
▁someone	-8.68966
▁player	-8.69269
▁An	-8.69476
▁Now	-8.69495
▁May	-8.69539
▁young	-8.69651
▁National	-8.70036
▁close	-8.70296
▁film	-8.70343
▁rather	-8.70369
▁win	-8.70532
▁research	-8.70749
▁15	-8.7076
W	-8.7079
▁J	-8.7094
▁taking	-8.7101
▁probably	-8.7119
ist	-8.71214
▁wanted	-8.71552
co	-8.716
ity	-8.71796
▁North	-8.72016
▁World	-8.72252
▁read	-8.72399
▁reported	-8.72476
▁policy	-8.72565
▁service	-8.72655
▁These	-8.72655
▁City	-8.73069
▁however	-8.73388
▁plan	-8.73392
▁decision	-8.73778
E	-8.73878
▁court	-8.74078
▁nothing	-8.74121
▁tax	-8.74318
▁reason	-8.74323
le	-8.75082
▁N	-8.75142
▁low	-8.75172
▁body	-8.75516
▁coming	-8.75553
▁create	-8.75748
▁short	-8.75906
▁further	-8.76018
▁six	-8.76052
v	-8.76182
▁black	-8.76232
▁Washington	-8.76522
▁death	-8.76535
▁federal	-8.76949
▁food	-8.77009
▁result	-8.77105
▁His	-8.77362
▁either	-8.77485
▁How	-8.77562
▁H	-8.77663
▁provide	-8.77687
▁matter	-8.77728
▁third	-8.77774
▁whole	-8.77775
▁Some	-8.77801
▁due	-8.77802
▁statement	-8.77981
▁space	-8.78036
▁companies	-8.78046
▁role	-8.78208
▁form	-8.78325
▁By	-8.78401
://	-8.78593
ism	-8.78651
▁students	-8.79023
▁everything	-8.79352
▁points	-8.79399
▁final	-8.79417
▁tell	-8.79484
▁released	-8.79614
▁front	-8.79712
▁issues	-8.79751
▁seems	-8.79836
▁9	-8.79941
▁wrote	-8.79994
▁co	-8.8002
▁attack	-8.80118
▁action	-8.80217
w	-8.80503
▁white	-8.80748
▁release	-8.8095
▁lead	-8.80985
▁office	-8.81149
▁hit	-8.8118
▁bad	-8.8126
▁himself	-8.81475
▁China	-8.81668
▁building	-8.81793
▁began	-8.82171
▁similar	-8.82265
▁continue	-8.82364
▁sense	-8.82505
▁outside	-8.82592
▁anti	-8.83153
▁return	-8.83154
▁general	-8.83297
▁record	-8.83385
▁simply	-8.83406
▁Re	-8.83548
▁officials	-8.8367
▁access	-8.83918
▁cost	-8.83919
▁Twitter	-8.8392
ness	-8.83935
▁itself	-8.84021
▁30	-8.84095
▁evidence	-8.84135
▁mean	-8.8414
ar	-8.84237
▁turn	-8.8433
▁hours	-8.84521
▁11	-8.84776
▁running	-8.84783
▁include	-8.84796
▁themselves	-8.8512
▁above	-8.85132
▁development	-8.85238
▁wasn	-8.8537
▁White	-8.85486
▁woman	-8.85546
▁everyone	-8.85638
▁2016	-8.85728
▁near	-8.85776
▁light	-8.85801
▁rights	-8.85823
▁South	-8.85992
▁My	-8.86047
▁countries	-8.86682
▁needed	-8.86752
as	-8.86858
▁talk	-8.87115
▁became	-8.87192
▁position	-8.87411
▁event	-8.87491
▁true	-8.87582
▁forward	-8.87601
▁states	-8.8781
▁pretty	-8.87907
▁stop	-8.88061
▁saw	-8.88222
▁version	-8.88229
no	-8.88359
▁below	-8.88511
▁0	-8.88616
▁energy	-8.88675
▁class	-8.88808
▁key	-8.88866
▁late	-8.88901
▁e	-8.88958
▁air	-8.8899
▁playing	-8.89009
▁main	-8.89194
▁economic	-8.89482
J	-8.89497
▁code	-8.89682
▁recently	-8.89817
▁especially	-8.90104
▁site	-8.90176
de	-8.90281
▁Facebook	-8.90311
▁Republican	-8.90488
▁quite	-8.90746
▁industry	-8.90818
▁mind	-8.90877
▁instead	-8.91006
▁vote	-8.91037
▁lost	-8.91101
▁played	-8.91132
▁build	-8.91245
el	-8.9154
▁St	-8.91593
▁value	-8.9209
▁Department	-8.92152
▁self	-8.92181
▁/	-8.9231
▁De	-8.92524
▁shows	-8.92546
▁March	-8.92913
▁special	-8.92958
▁groups	-8.93132
6	-8.93168
▁#	-8.9324
▁Google	-8.93242
▁else	-8.93392
▁needs	-8.93421
H	-8.93436
▁fight	-8.93558
▁pre	-8.93757
▁election	-8.93824
▁longer	-8.94033
▁online	-8.94042
▁test	-8.94182
▁West	-8.94189
ia	-8.94346
▁understand	-8.94608
▁Here	-8.94635
time	-8.94872
less	-8.94929
▁higher	-8.95381
▁strong	-8.95479
▁house	-8.95605
▁view	-8.95672
▁room	-8.95699
▁article	-8.95894
▁According	-8.95906
▁words	-8.95919
▁potential	-8.96116
▁bill	-8.96379
▁rate	-8.96523
▁total	-8.96889
▁June	-8.97048
▁bring	-8.97244
ch	-8.97456
L	-8.97591
O	-8.97724
ton	-8.97796
▁weeks	-8.9805
▁16	-8.98053
▁minutes	-8.98219
▁field	-8.98271
▁Not	-8.9831
▁San	-8.98424
▁increase	-8.98602
▁music	-8.98688
V	-8.98761
▁Do	-8.98809
▁official	-8.98863
8	-8.98977
▁billion	-8.99051
na	-8.99056
▁al	-8.99249
▁technology	-8.99294
▁$	-8.99534
▁age	-8.99627
▁held	-8.99728
▁hope	-8.99925
▁anyone	-9.00019
▁Friday	-9.00047
▁July	-9.00089
▁private	-9.00129
▁legal	-9.0018
▁results	-9.00243
▁News	-9.00332
▁|	-9.00614
▁involved	-9.00636
▁child	-9.00646
▁expected	-9.00741
▁changes	-9.00862
▁average	-9.00885
▁earlier	-9.01119
▁director	-9.01293
te	-9.0136
Y	-9.01386
▁services	-9.01478
▁led	-9.01501
▁easy	-9.01576
▁soon	-9.0159
▁amount	-9.01658
▁certain	-9.01701
▁risk	-9.01744
▁allow	-9.01831
▁rest	-9.02054
▁received	-9.02294
▁Tuesday	-9.02347
▁leave	-9.02494
▁Monday	-9.02608
▁:	-9.031
▁friends	-9.03165
▁created	-9.03203
▁type	-9.03264
▁share	-9.03265
▁fire	-9.03299
7	-9.03391
ian	-9.03468
▁War	-9.03616
▁shot	-9.03671
▁moment	-9.03869
▁cannot	-9.03977
▁source	-9.04061
▁force	-9.04119
▁announced	-9.04236
▁cut	-9.04246
▁V	-9.04464
▁nearly	-9.04528
▁problems	-9.04576
rs	-9.04616
▁questions	-9.04688
▁Al	-9.04691
▁2015	-9.04872
▁April	-9.04893
▁Even	-9.04977
▁personal	-9.05026
▁interest	-9.05184
▁X	-9.05271
▁killed	-9.05429
▁living	-9.05448
▁response	-9.05548
▁wrong	-9.05655
▁goal	-9.05666
un	-9.05763
▁original	-9.05939
▁Russia	-9.06006
▁design	-9.06035
ling	-9.06236
ment	-9.06267
at	-9.06275
▁i	-9.06322
▁God	-9.06412
▁common	-9.06427
▁inside	-9.06523
▁17	-9.06538
This	-9.06762
▁David	-9.06901
▁race	-9.06987
▁fans	-9.07003
▁More	-9.07067
ne	-9.07089
▁model	-9.07098
▁2017	-9.07198
▁@	-9.07518
▁phone	-9.07574
▁Thursday	-9.07612
▁price	-9.07674
▁situation	-9.0783
▁difficult	-9.07938
▁trade	-9.0798
▁international	-9.08336
X	-9.08613
▁entire	-9.08641
▁content	-9.08794
–	-9.08914
▁users	-9.0901
▁chance	-9.09012
▁oil	-9.09077
▁financial	-9.09223
▁First	-9.09369
▁worked	-9.09425
▁Paul	-9.0954
am	-9.09555
based	-9.09591
▁ground	-9.09641
▁couple	-9.09758
▁ability	-9.09869
▁currently	-9.099
▁step	-9.10101
▁add	-9.10118
▁effect	-9.10378
▁period	-9.10467
▁meeting	-9.10692
▁Dr	-9.1074
▁account	-9.10976
▁September	-9.11004
▁member	-9.11043
▁14	-9.11073
▁land	-9.11186
▁13	-9.11239
▁published	-9.1145
▁website	-9.11471
▁pro	-9.11644
▁100	-9.11645
▁Wednesday	-9.12054
▁performance	-9.12106
0	-9.1214
▁character	-9.12153
▁La	-9.12212
▁TV	-9.12299
▁reports	-9.12393
▁happened	-9.12438
▁simple	-9.12462
9	-9.12564
▁cases	-9.12586
▁sent	-9.12598
▁gave	-9.12641
▁European	-9.12662
▁whose	-9.1269
▁staff	-9.12706
▁decided	-9.12745
▁turned	-9.1277
▁workers	-9.13032
▁August	-9.13163
▁ways	-9.13241
▁November	-9.13669
▁January	-9.13815
▁Americans	-9.13833
▁career	-9.13836
▁goes	-9.13952
▁production	-9.14179
▁Or	-9.14301
▁plans	-9.14387
▁50	-9.14433
▁terms	-9.14603
son	-9.14624
▁Sunday	-9.14684
▁interview	-9.14872
▁global	-9.14883
▁Canada	-9.14976
▁2014	-9.15026
ry	-9.1517
▁administration	-9.1525
▁)	-9.15331
▁lives	-9.15364
▁+	-9.15409
▁areas	-9.15565
▁popular	-9.156
▁Of	-9.15658
▁Congress	-9.15965
▁morning	-9.16001
▁via	-9.16006
be	-9.1605
▁page	-9.16053
▁quickly	-9.16116
▁email	-9.16118
▁image	-9.16267
▁offer	-9.16414
▁word	-9.16596
▁happen	-9.16739
▁October	-9.16777
▁built	-9.17075
▁*	-9.17208
▁felt	-9.17271
▁economy	-9.1729
▁Europe	-9.17597
▁present	-9.17637
▁ask	-9.17643
▁press	-9.17868
▁{	-9.17995
▁father	-9.18073
▁spent	-9.18192
He	-9.18207
▁seem	-9.1848
ie	-9.18636
In	-9.1871
of	-9.18899
▁events	-9.18965
▁included	-9.19038
▁hold	-9.19076
▁learn	-9.19239
▁network	-9.19328
▁heard	-9.19329
▁California	-9.19364
▁knew	-9.19393
You	-9.19544
▁Russian	-9.19612
▁foreign	-9.19662
▁board	-9.19723
id	-9.19728
▁British	-9.19755
▁Court	-9.19759
▁various	-9.19959
▁tried	-9.19968
▁Then	-9.20112
▁population	-9.20128
▁individual	-9.20135
▁takes	-9.20172
one	-9.20178
▁allowed	-9.20196
▁size	-9.20228
ta	-9.20323
?”	-9.20342
▁India	-9.20432
ro	-9.20505
▁UK	-9.20714
▁particular	-9.20721
▁cause	-9.20904
out	-9.20942
▁works	-9.21093
U	-9.21097
▁attention	-9.21161
▁brought	-9.212
▁Center	-9.21267
▁movement	-9.21527
▁medical	-9.21529
▁significant	-9.21569
▁Saturday	-9.2157
▁December	-9.21572
▁approach	-9.21638
▁From	-9.21694
▁range	-9.21831
▁Israel	-9.21905
▁follow	-9.22007
▁impact	-9.2201
▁25	-9.22079
▁lower	-9.22156
j	-9.22169
▁huge	-9.22208
▁Co	-9.2258
▁mother	-9.22608
▁Street	-9.22691
▁buy	-9.22754
▁leader	-9.22821
▁sign	-9.22915
▁addition	-9.22959
▁forces	-9.23199
▁growth	-9.23518
ley	-9.23844
▁training	-9.23976
▁previous	-9.24056
▁Man	-9.24157
▁c	-9.2432
age	-9.24432
▁focus	-9.24564
▁heart	-9.24592
▁numbers	-9.24614
▁pick	-9.24637
▁Times	-9.24732
▁Senate	-9.24822
▁address	-9.25204
▁language	-9.25241
▁latest	-9.25348
▁sort	-9.25352
▁talking	-9.25465
ine	-9.25526
ur	-9.25565
▁County	-9.25651
▁teams	-9.25695
▁science	-9.25777
▁investigation	-9.25797
▁Party	-9.25825
ized	-9.25837
▁seven	-9.25851
▁worth	-9.25926
ma	-9.26373
▁upon	-9.26426
▁Donald	-9.2679
ary	-9.26902
▁rules	-9.2699
▁fall	-9.27058
▁guy	-9.27311
▁considered	-9.27371
ty	-9.27458
▁nation	-9.27524
▁term	-9.27684
▁Police	-9.27735
▁hands	-9.2788
▁leaders	-9.27955
▁stay	-9.28042
▁Go	-9.28138
ner	-9.28431
▁check	-9.28468
▁watch	-9.28896
▁effort	-9.28919
▁paper	-9.29035
▁specific	-9.29257
▁gun	-9.29455
by	-9.29644
me	-9.29908
▁defense	-9.2993
▁Black	-9.29993
▁app	-9.30014
▁club	-9.30083
▁break	-9.30087
▁lack	-9.30104
est	-9.30157
If	-9.30344
ke	-9.30347
▁looks	-9.30412
▁Michael	-9.30465
▁jobs	-9.30657
▁drug	-9.307
▁wants	-9.30731
There	-9.30897
▁written	-9.30941
▁East	-9.30974
▁exactly	-9.31152
▁user	-9.31186
▁features	-9.312
▁Pro	-9.31245
▁pressure	-9.31267
▁Be	-9.3134
▁answer	-9.31346
▁19	-9.31354
▁act	-9.31414
▁message	-9.31463
▁friend	-9.31476
▁writing	-9.31497
▁expect	-9.31547
▁claims	-9.31583
▁base	-9.31592
▁stand	-9.31672
▁London	-9.31731
▁Most	-9.31789
ra	-9.31822
▁pass	-9.31885
▁completely	-9.31918
▁climate	-9.32023
▁town	-9.32031
▁officers	-9.32311
▁movie	-9.324
▁summer	-9.32413
▁majority	-9.32494
▁2012	-9.3251
▁Since	-9.32661
▁required	-9.32676
▁parents	-9.32682
▁complete	-9.32767
▁interesting	-9.32793
▁success	-9.32865
▁son	-9.32897
▁2013	-9.32911
▁damage	-9.32945
▁21	-9.32957
▁opportunity	-9.33
▁hear	-9.33062
▁particularly	-9.33118
▁despite	-9.33214
▁stories	-9.3329
▁Act	-9.33364
la	-9.33659
▁described	-9.33715
▁certainly	-9.33793
▁showed	-9.33862
▁practice	-9.33906
ul	-9.33933
line	-9.33939
▁looked	-9.33943
▁society	-9.34015
▁Why	-9.34043
▁middle	-9.34053
▁James	-9.34147
▁levels	-9.34198
▁fun	-9.34367
▁Texas	-9.34441
▁culture	-9.34471
▁finally	-9.34485
ate	-9.34488
▁budget	-9.34507
amp	-9.34516
▁comment	-9.34645
▁paid	-9.34702
▁sex	-9.34738
▁natural	-9.34805
▁modern	-9.34845
▁Red	-9.34845
▁relationship	-9.34848
▁Republicans	-9.34969
▁claim	-9.34979
▁region	-9.35013
▁biggest	-9.35065
▁chief	-9.35114
▁growing	-9.35136
▁write	-9.3515
▁eight	-9.35163
▁products	-9.35185
▁quality	-9.35205
▁product	-9.3526
▁violence	-9.35414
▁file	-9.35481
▁multiple	-9.35497
ies	-9.35518
▁serious	-9.35535
▁consider	-9.35772
▁sound	-9.35839
▁giving	-9.3591
do	-9.35952
▁Le	-9.3601
▁Me	-9.36092
▁sexual	-9.36234
▁Just	-9.36258
▁February	-9.3633
=	-9.36416
▁ready	-9.36554
▁student	-9.36593
▁meet	-9.36687
ad	-9.36858
▁gas	-9.36877
▁education	-9.36903
▁officer	-9.36929
▁leading	-9.36957
▁match	-9.37014
>	-9.37023
▁Democratic	-9.37064
▁Park	-9.37108
▁starting	-9.37137
▁changed	-9.37148
▁review	-9.37175
▁Let	-9.37185
▁remains	-9.37257
▁named	-9.37465
▁Post	-9.37471
▁red	-9.3752
▁reading	-9.37685
+	-9.37692
▁continued	-9.37716
▁(@	-9.37783
▁40	-9.37784
▁http	-9.37792
▁provided	-9.37842
▁costs	-9.37879
▁Don	-9.38037
▁remain	-9.38223
▁cover	-9.38243
▁sometimes	-9.38245
▁perhaps	-9.38247
▁wouldn	-9.38356
▁details	-9.38499
▁aren	-9.3859
▁Many	-9.39012
▁League	-9.39127
▁beyond	-9.39178
▁ball	-9.39302
▁<	-9.3961
ca	-9.39637
il	-9.39676
▁road	-9.39688
▁died	-9.39706
▁stuff	-9.39775
da	-9.39861
▁systems	-9.39918
▁piece	-9.39988
▁Apple	-9.40053
▁attacks	-9.40074
ting	-9.40148
▁speech	-9.40207
▁reality	-9.40222
▁couldn	-9.40232
▁thinking	-9.40631
­	-9.40662
▁Mo	-9.40731
.)	-9.40754
▁center	-9.40812
▁Minister	-9.4087
▁choice	-9.40958
▁voters	-9.40962
▁speed	-9.41058
land	-9.41166
▁round	-9.41173
▁Chinese	-9.41225
▁usually	-9.41302
▁comments	-9.41363
▁immediately	-9.41417
▁efforts	-9.41488
▁}	-9.41504
▁additional	-9.41505
ter	-9.41666
▁conference	-9.41738
▁kids	-9.41838
▁toward	-9.4203
▁scene	-9.42076
▁Democrats	-9.42085
".	-9.42098
▁Last	-9.42152
▁gets	-9.42294
▁dead	-9.42306
▁property	-9.42491
▁wife	-9.42511
▁league	-9.42631
men	-9.42711
▁thousands	-9.42729
▁agency	-9.42734
▁met	-9.42839
▁24	-9.42896
▁towards	-9.42944
▁although	-9.42975
▁search	-9.42999
▁function	-9.43147
▁standard	-9.43179
▁track	-9.43298
ish	-9.43327
ri	-9.43346
▁increased	-9.43417
▁alone	-9.43432
▁guys	-9.43497
▁date	-9.4351
▁coach	-9.43512
▁debate	-9.43598
▁directly	-9.43599
▁throughout	-9.43632
▁brain	-9.43743
▁gone	-9.43932
▁figure	-9.43955
▁football	-9.43983
▁beginning	-9.44063
▁French	-9.44201
▁card	-9.44274
▁organization	-9.44298
▁protect	-9.44347
▁designed	-9.44503
▁v	-9.44551
ally	-9.44557
▁candidate	-9.4476
▁favorite	-9.44791
go	-9.44792
▁Our	-9.44831
▁Advertisement	-9.44842
▁calls	-9.44951
▁includes	-9.45055
▁fast	-9.45117
▁receive	-9.45212
um	-9.45247
▁letter	-9.45285
ler	-9.45328
▁safety	-9.45416
▁college	-9.45551
▁ahead	-9.45597
et	-9.45612
▁Bill	-9.4577
▁art	-9.45835
con	-9.45841
▁loss	-9.45848
day	-9.45867
▁star	-9.4587
▁stage	-9.46117
▁moving	-9.46175
▁drive	-9.46244
▁target	-9.46305
▁moved	-9.46334
▁Although	-9.46362
▁fear	-9.4639
▁software	-9.46392
▁Star	-9.46435
▁title	-9.46458
off	-9.46486
▁capital	-9.46507
▁f	-9.46535
▁powerful	-9.46592
▁nature	-9.46602
▁bar	-9.46675
▁senior	-9.46789
▁passed	-9.46814
▁material	-9.46852
▁store	-9.46919
ent	-9.47159
▁Syria	-9.47188
▁German	-9.47232
ous	-9.47255
▁extra	-9.47343
▁effects	-9.47434
▁reach	-9.47478
▁device	-9.47558
▁Because	-9.4758
▁cent	-9.47656
▁English	-9.47712
ir	-9.47763
&	-9.47805
▁feature	-9.47985
▁myself	-9.4802
▁executive	-9.48142
▁laws	-9.4819
▁difference	-9.48282
▁battle	-9.48285
▁$1	-9.483
▁Like	-9.48418
▁appears	-9.48748
▁subject	-9.48778
▁helped	-9.48815
▁charge	-9.48848
▁century	-9.4886
▁limited	-9.48866
▁happy	-9.48877
▁treatment	-9.48935
▁la	-9.48943
▁contract	-9.49131
per	-9.49209
▁conditions	-9.49211
▁failed	-9.49302
▁compared	-9.49439
▁presidential	-9.49583
Z	-9.49739
▁deep	-9.49796
▁appear	-9.49827
▁overall	-9.50067
▁religious	-9.50137
▁remember	-9.50272
▁largest	-9.50456
▁Mark	-9.50464
▁safe	-9.50473
▁reasons	-9.50513
▁spending	-9.5055
▁maybe	-9.50551
▁EU	-9.50615
ka	-9.50723
▁avoid	-9.50753
▁International	-9.50987
▁environment	-9.51011
▁m	-9.51037
▁appeared	-9.51069
▁computer	-9.5109
▁income	-9.5115
They	-9.51187
▁parts	-9.51219
▁People	-9.51277
▁travel	-9.51344
▁analysis	-9.51411
ive	-9.5145
▁shown	-9.51524
▁poor	-9.51534
▁Image	-9.51558
▁During	-9.51638
?"	-9.51688
▁Australia	-9.517
▁easily	-9.51861
▁necessary	-9.5195
▁blood	-9.52005
▁visit	-9.52117
▁forced	-9.52122
ful	-9.52268
▁crime	-9.52324
▁basic	-9.5234
▁physical	-9.52356
▁•	-9.52404
▁Germany	-9.52407
▁Earth	-9.5243
▁yourself	-9.52507
▁George	-9.52523
▁en	-9.5259
▁Day	-9.52633
ize	-9.52725
▁crisis	-9.5274
▁Well	-9.52815
▁attempt	-9.52872
▁nuclear	-9.52893
▁Z	-9.52898
▁families	-9.52918
▁eyes	-9.53101
▁eventually	-9.53202
we	-9.53573
▁option	-9.53606
ge	-9.53696
▁screen	-9.53698
▁2011	-9.53701
▁criminal	-9.53884
▁signed	-9.53965
ni	-9.54171
▁Her	-9.54173
▁central	-9.54238
▁followed	-9.5448
nd	-9.54533
▁Q	-9.54944
▁threat	-9.5497
▁El	-9.55016
▁sub	-9.55138
▁positive	-9.55162
▁weekend	-9.55322
▁intelligence	-9.55341
▁challenge	-9.55397
▁2010	-9.55453
ization	-9.55555
▁band	-9.55579
▁door	-9.55591
▁eye	-9.55611
▁contact	-9.55666
▁ensure	-9.55691
ce	-9.55705
▁perfect	-9.55705
os	-9.55947
▁voice	-9.55962
ant	-9.56011
▁credit	-9.56053
▁developed	-9.56072
▁begin	-9.56205
▁weapons	-9.56254
▁allows	-9.56325
▁fine	-9.56346
▁politics	-9.56506
▁characters	-9.56515
▁author	-9.5652
▁decades	-9.56604
▁save	-9.56613
▁Also	-9.56704
▁note	-9.56721
▁shooting	-9.56796
▁Japan	-9.56851
ted	-9.56898
▁rule	-9.56947
▁mid	-9.57002
▁incident	-9.57042
▁previously	-9.57131
▁School	-9.57185
▁text	-9.57232
▁regular	-9.57234
▁Another	-9.57254
▁send	-9.5733
▁rise	-9.57486
▁manager	-9.57517
▁larger	-9.57545
▁King	-9.57681
se	-9.57748
▁d	-9.5783
▁General	-9.5795
like	-9.57969
▁debt	-9.57977
▁truth	-9.58077
ci	-9.58477
term	-9.58512
▁choose	-9.58521
▁successful	-9.58534
▁schools	-9.58552
▁improve	-9.58589
▁ex	-9.586
▁Smith	-9.58611
led	-9.58736
▁resources	-9.58789
▁individuals	-9.58915
▁Two	-9.58916
▁books	-9.58964
▁spend	-9.58997
%	-9.59143
▁color	-9.5929
tic	-9.59318
▁highly	-9.59379
▁France	-9.59561
▁speak	-9.59703
▁fully	-9.59709
▁table	-9.59746
▁rates	-9.59746
▁actions	-9.59811
▁demand	-9.59846
▁Read	-9.59847
▁England	-9.59923
▁sales	-9.59947
▁status	-9.59958
▁seemed	-9.60031
▁continues	-9.60059
▁Mar	-9.60064
▁photo	-9.60098
▁greater	-9.60118
▁reached	-9.60138
▁wide	-9.60172
▁Florida	-9.60246
▁Iraq	-9.60258
▁unique	-9.60284
▁Union	-9.6029
▁gives	-9.60468
▁complex	-9.60542
▁Your	-9.60543
▁Council	-9.60556
▁customers	-9.60562
▁Iran	-9.60675
▁related	-9.60718
▁cities	-9.60742
▁projects	-9.61065
▁feet	-9.61102
▁respect	-9.61248
▁Internet	-9.61312
▁primary	-9.61356
he	-9.6139
▁border	-9.61498
▁nice	-9.61503
▁Hillary	-9.61511
▁ideas	-9.61565
▁authorities	-9.61568
▁clearly	-9.61609
▁Mike	-9.61622
▁block	-9.6168
▁weight	-9.61692
▁researchers	-9.61694
▁direct	-9.61758
▁normal	-9.61818
for	-9.61888
▁hour	-9.62005
▁require	-9.62096
▁claimed	-9.6224
▁application	-9.62263
▁web	-9.62394
@	-9.62543
▁knowledge	-9.62551
▁prevent	-9.6262
ists	-9.62696
▁mass	-9.62749
▁wait	-9.62767
[	-9.62805
▁Game	-9.62895
▁con	-9.62993
▁Con	-9.63001
▁Brown	-9.63086
▁traditional	-9.63111
▁activity	-9.63132
▁fighting	-9.63175
▁kept	-9.63181
▁b	-9.63233
▁Can	-9.63268
▁caused	-9.6333
▁policies	-9.63392
▁box	-9.63482
▁push	-9.63496
▁benefits	-9.63532
pe	-9.63569
li	-9.6364
▁employees	-9.63927
▁charges	-9.6401
▁actual	-9.64048
▁22	-9.64167
▁female	-9.64175
▁patients	-9.64252
▁funding	-9.64276
▁benefit	-9.64291
▁noted	-9.64322
▁creating	-9.64329
▁Instead	-9.64377
▁dis	-9.64508
▁options	-9.64531
end	-9.64666
ber	-9.64695
▁programs	-9.64743
ol	-9.64753
▁Over	-9.64848
▁fan	-9.64874
▁adding	-9.64897
▁picture	-9.64923
▁Other	-9.65089
▁raised	-9.65299
▁goals	-9.65304
▁lines	-9.65367
▁ended	-9.65374
▁haven	-9.65503
▁style	-9.65505
▁posted	-9.65518
▁sea	-9.65535
▁agreement	-9.6572
▁studies	-9.65749
▁prison	-9.65754
▁23	-9.65871
▁independent	-9.65883
▁committee	-9.65943
▁arrested	-9.65976
▁minister	-9.65981
▁walk	-9.6601
▁freedom	-9.66021
▁Bush	-9.66098
▁bank	-9.66153
▁Green	-9.66192
▁Health	-9.66237
▁camera	-9.66272
▁leaving	-9.66308
▁sources	-9.66425
▁concerns	-9.66425
▁60	-9.6661
▁opposition	-9.6662
▁Chicago	-9.66641
ating	-9.66689
▁seeing	-9.66804
▁Un	-9.66807
▁double	-9.66865
▁prices	-9.66976
▁solution	-9.67102
▁Y	-9.67146
20	-9.6718
▁worse	-9.67208
▁influence	-9.67214
▁meant	-9.67289
▁lose	-9.67386
sh	-9.67517
▁calling	-9.67615
▁Johnson	-9.67751
di	-9.67792
▁happens	-9.67793
▁strategy	-9.67878
▁Once	-9.67934
▁sold	-9.68052
▁Justice	-9.68167
▁song	-9.68289
▁super	-9.68308
▁host	-9.68369
▁marriage	-9.68372
ha	-9.68394
▁Los	-9.6843
▁Photo	-9.68465
But	-9.68494
▁citizens	-9.68549
▁feeling	-9.68587
all	-9.68659
▁opening	-9.68733
▁offered	-9.68754
▁Super	-9.68764
▁whatever	-9.68768
▁Sen	-9.68939
▁sell	-9.68947
▁learned	-9.69061
www	-9.69143
▁confirmed	-9.69161
▁whom	-9.69241
▁competition	-9.69344
▁digital	-9.69456
▁Press	-9.69518
▁fit	-9.69523
▁Committee	-9.69569
▁counter	-9.69612
▁platform	-9.69621
▁parties	-9.69634
▁produce	-9.69639
▁nine	-9.69829
▁Christian	-9.7019
▁revealed	-9.70241
▁request	-9.70242
▁believed	-9.70244
▁grow	-9.70298
▁spot	-9.70334
▁floor	-9.70416
é	-9.70448
▁street	-9.70516
▁mostly	-9.70525
▁girl	-9.70635
▁Chris	-9.7069
▁Car	-9.70754
▁showing	-9.70933
ated	-9.70948
org	-9.71104
▁television	-9.71355
▁drop	-9.71386
10	-9.71399
▁etc	-9.71412
▁massive	-9.71539
lo	-9.71607
▁hospital	-9.71625
▁places	-9.71636
);	-9.71664
▁path	-9.71701
if	-9.718
▁station	-9.71875
▁et	-9.71887
What	-9.71906
▁Korea	-9.71971
▁trial	-9.71991
▁Sa	-9.72013
▁trust	-9.72086
▁operations	-9.72278
▁2008	-9.72331
▁residents	-9.72386
▁asking	-9.72394
ba	-9.72423
▁dollars	-9.7247
▁location	-9.72518
▁Security	-9.72557
▁records	-9.72675
▁core	-9.72687
▁critical	-9.72694
mo	-9.72853
▁hot	-9.72855
▁investment	-9.72861
▁Sanders	-9.729
▁highest	-9.7296
”.	-9.73023
▁26	-9.73211
▁section	-9.73278
▁agree	-9.73319
im	-9.73338
▁Yes	-9.73365
▁kill	-9.73432
▁miles	-9.73472
▁civil	-9.73542
▁department	-9.73629
▁ban	-9.73665
▁blog	-9.73705
field	-9.73705
▁Western	-9.73741
▁Ben	-9.73763
▁conservative	-9.7379
▁Di	-9.73866
▁album	-9.73869
▁machine	-9.73917
▁blue	-9.73928
▁effective	-9.73953
▁pain	-9.73984
▁images	-9.73992
▁Robert	-9.74083
▁green	-9.74087
▁launch	-9.7409
▁Those	-9.74137
▁responsible	-9.74156
▁reduce	-9.74179
▁learning	-9.74244
▁straight	-9.74301
▁audience	-9.74315
▁Cup	-9.74321
▁NFL	-9.74335
▁memory	-9.74366
▁vs	-9.74371
▁firm	-9.74404
▁values	-9.74438
▁Office	-9.74479
▁See	-9.74479
▁quick	-9.74481
▁interested	-9.74506
▁behavior	-9.74586
lin	-9.74681
▁associated	-9.74709
▁Indian	-9.74728
▁daily	-9.74745
▁develop	-9.7476
▁produced	-9.74841
▁agreed	-9.74865
▁accused	-9.7488
back	-9.74933
▁join	-9.74938
▁Bank	-9.75
▁legislation	-9.75025
\	-9.75113
▁ran	-9.75164
▁episode	-9.75164
▁Both	-9.75174
▁Air	-9.75197
▁opinion	-9.75213
▁cash	-9.7523
▁method	-9.75299
▁separate	-9.75367
▁advantage	-9.75377
▁illegal	-9.7542
▁meaning	-9.75473
▁ten	-9.75506
▁devices	-9.75562
▁gay	-9.75571
▁x	-9.75736
▁28	-9.75856
▁secret	-9.75917
▁link	-9.75975
▁explained	-9.75999
▁becoming	-9.76017
▁cars	-9.76059
ak	-9.7612
▁mission	-9.76159
way	-9.7633
▁vehicle	-9.76377
▁surface	-9.76381
That	-9.76416
ier	-9.76475
▁understanding	-9.76547
▁27	-9.76556
▁bottom	-9.766
op	-9.76631
▁easier	-9.7667
▁Institute	-9.76678
▁Windows	-9.7674
der	-9.76831
▁judge	-9.76872
▁served	-9.76979
▁serve	-9.77073
▁proposed	-9.77159
▁Big	-9.77193
▁Jones	-9.77199
▁purpose	-9.77335
▁enjoy	-9.77349
▁offers	-9.77357
ER	-9.77413
▁opened	-9.7751
▁Bo	-9.77615
side	-9.77651
▁marijuana	-9.77651
▁Today	-9.77659
rd	-9.77676
*	-9.77705
▁draft	-9.77706
▁Lo	-9.7779
▁born	-9.77811
▁decade	-9.77811
▁hearing	-9.77881
▁runs	-9.77882
▁winning	-9.77898
▁Muslim	-9.77915
▁spoke	-9.77971
▁carry	-9.78065
▁management	-9.7816
▁provides	-9.78174
▁species	-9.78204
▁male	-9.78248
▁Islamic	-9.78269
▁cool	-9.78341
▁fair	-9.78342
▁THE	-9.78372
▁Despite	-9.78474
▁doubt	-9.7851
▁basis	-9.78623
▁Fox	-9.78706
▁die	-9.78781
▁scientists	-9.78784
Q	-9.78791
▁dark	-9.78834
▁map	-9.78848
▁theory	-9.78924
▁traffic	-9.78961
▁cast	-9.7899
▁Wall	-9.79008
▁disease	-9.79054
▁returned	-9.79176
▁uses	-9.79198
▁1,	-9.79226
▁Martin	-9.79228
▁High	-9.79259
▁n	-9.79286
▁victory	-9.79333
▁>	-9.79415
▁concept	-9.79453
▁thus	-9.79509
▁mobile	-9.79532
▁generally	-9.79533
▁leadership	-9.79553
▁church	-9.79653
not	-9.79706
▁documents	-9.79723
▁justice	-9.79738
▁charged	-9.7975
▁Will	-9.79764
▁coverage	-9.79772
io	-9.7985
▁Israeli	-9.7988
▁instance	-9.79881
but	-9.79908
ance	-9.79917
▁African	-9.79958
▁explain	-9.79996
▁hundreds	-9.80046
ah	-9.80048
▁onto	-9.80143
▁direction	-9.80155
▁scale	-9.80193
▁daughter	-9.80351
▁Canadian	-9.80509
▁fuel	-9.80553
▁crowd	-9.80584
▁existing	-9.80658
▁Bay	-9.80666
▁argument	-9.80711
▁names	-9.80721
▁measure	-9.80935
▁Get	-9.81018
▁spread	-9.81021
▁extremely	-9.81034
▁suggest	-9.81062
▁tend	-9.81127
ster	-9.81133
red	-9.81142
▁internet	-9.81198
▁active	-9.81236
den	-9.81298
▁shared	-9.81325
▁ice	-9.81329
ut	-9.81379
▁Peter	-9.81391
▁Britain	-9.81491
▁condition	-9.81491
▁driving	-9.81542
▁finding	-9.81582
▁clean	-9.81587
▁Their	-9.8159
▁professional	-9.81623
▁reform	-9.81689
▁definitely	-9.81754
▁holding	-9.81807
▁Who	-9.81829
▁watching	-9.8184
▁knows	-9.81874
▁accept	-9.8196
▁suggested	-9.81972
▁progress	-9.82199
▁unit	-9.82224
▁GOP	-9.82476
▁Tom	-9.82502
▁driver	-9.82547
▁putting	-9.827
!”	-9.82804
▁types	-9.82809
▁communities	-9.82943
▁dangerous	-9.82975
▁structure	-9.82986
▁Please	-9.83075
▁generation	-9.83082
▁worst	-9.83262
▁FBI	-9.83393
net	-9.83396
▁wall	-9.83701
ite	-9.83787
▁construction	-9.83797
ko	-9.83847
▁launched	-9.83862
No	-9.83905
▁drugs	-9.83914
▁victims	-9.83914
▁concern	-9.83981
▁Microsoft	-9.84033
▁cancer	-9.84078
▁se	-9.84088
▁older	-9.84121
▁allowing	-9.84158
▁raise	-9.84197
▁Yet	-9.8422
▁concerned	-9.84251
▁Ryan	-9.84252
bo	-9.84399
▁1.	-9.84486
▁discovered	-9.84509
▁closed	-9.84521
▁Government	-9.84628
▁commercial	-9.8468
which	-9.84681
▁victim	-9.84751
mer	-9.84818
ger	-9.84873
so	-9.84892
",	-9.84902
▁brand	-9.84915
ana	-9.8492
my	-9.85013
▁supporters	-9.85059
▁update	-9.85075
▁trip	-9.8511
▁telling	-9.85118
▁2009	-9.85187
▁initial	-9.85207
▁nor	-9.85289
▁gender	-9.85371
right	-9.85463
▁g	-9.8549
▁cross	-9.85523
▁hair	-9.85624
▁abuse	-9.85632
▁collection	-9.85724
▁conversation	-9.85757
▁task	-9.85761
▁Scott	-9.85771
▁largely	-9.85791
▁entirely	-9.85815
▁millions	-9.85889
▁testing	-9.85942
▁caught	-9.85969
▁tool	-9.85979
▁heavy	-9.86057
▁plant	-9.86103
▁notes	-9.86159
▁injury	-9.8631
po	-9.86388
▁cards	-9.86399
▁activities	-9.86538
▁gold	-9.86557
▁camp	-9.86571
30	-9.86638
▁supply	-9.86679
▁issued	-9.86817
▁stated	-9.86829
▁display	-9.86848
▁insurance	-9.86861
em	-9.87013
▁Syrian	-9.87015
▁notice	-9.87021
▁Time	-9.87036
ex	-9.87074
▁train	-9.87133
And	-9.87171
▁businesses	-9.87231
▁willing	-9.87317
▁please	-9.8736
▁spokesman	-9.87381
▁En	-9.87638
▁annual	-9.87677
▁Law	-9.87682
▁assault	-9.87785
▁Angeles	-9.87853
▁smaller	-9.87894
▁Japanese	-9.87948
q	-9.88285
▁husband	-9.88327
▁truly	-9.88463
▁supposed	-9.88514
▁conflict	-9.88526
▁becomes	-9.8855
▁Research	-9.88701
▁presence	-9.88814
▁murder	-9.88901
▁items	-9.88942
▁exchange	-9.88973
▁aware	-9.88992
▁Ho	-9.8907
▁rock	-9.89168
▁Sun	-9.89192
▁identified	-9.89199
▁Bar	-9.89223
ise	-9.89267
▁Great	-9.89278
▁supported	-9.89432
▁planning	-9.89455
▁offensive	-9.89462
▁PC	-9.89618
▁negative	-9.89714
▁respond	-9.8974
▁discussion	-9.89764
▁radio	-9.89826
▁object	-9.8984
▁stopped	-9.89843
▁Android	-9.8985
izing	-9.89897
▁obvious	-9.89926
▁tools	-9.89945
ga	-9.89952
▁Africa	-9.90005
▁operation	-9.90049
▁established	-9.90086
▁Team	-9.90179
▁surprise	-9.90262
▁fell	-9.90264
▁sites	-9.90346
}	-9.90369
▁II	-9.90425
▁partner	-9.90427
▁Up	-9.90517
ping	-9.9058
ence	-9.90725
va	-9.90794
▁score	-9.90807
▁housing	-9.90824
▁Thomas	-9.9092
▁mentioned	-9.9093
▁poll	-9.90934
ship	-9.90988
▁exist	-9.91021
▁owner	-9.9103
▁eat	-9.9104
▁Media	-9.91141
▁fourth	-9.91188
ron	-9.91205
▁waiting	-9.91211
▁balance	-9.91233
▁joined	-9.91295
▁Group	-9.91311
▁Ko	-9.91327
ran	-9.91329
over	-9.91354
ial	-9.91354
▁banks	-9.91364
our	-9.91419
▁wind	-9.91451
▁Prime	-9.91479
▁managed	-9.91496
kin	-9.91551
min	-9.91552
▁setting	-9.91562
▁introduced	-9.91569
▁Association	-9.91582
▁Supreme	-9.91582
▁enforcement	-9.9161
▁requires	-9.91611
▁amazing	-9.91702
▁dog	-9.91723
▁context	-9.91885
▁Free	-9.91897
▁Jewish	-9.91899
▁Lu	-9.91906
▁stock	-9.91947
▁missing	-9.92024
▁providing	-9.92024
$	-9.92072
▁brother	-9.9219
▁beat	-9.92223
ey	-9.92245
▁Australian	-9.92296
▁ship	-9.92334
▁background	-9.92351
▁slow	-9.92373
▁therefore	-9.9244
▁boy	-9.92455
ti	-9.92504
▁animals	-9.92582
▁candidates	-9.92684
▁north	-9.927
▁standing	-9.92723
▁CEO	-9.92794
▁filed	-9.92825
▁placed	-9.9291
▁o	-9.92941
▁Mac	-9.93017
▁funds	-9.93032
▁Hall	-9.93077
▁Under	-9.93097
▁Foundation	-9.93121
▁quarter	-9.93128
▁killing	-9.93152
▁otherwise	-9.93271
▁rich	-9.93406
▁useful	-9.93451
▁sit	-9.93604
▁Li	-9.93612
▁Mexico	-9.93629
▁keeping	-9.93629
▁cell	-9.93701
▁focused	-9.93701
▁hasn	-9.93811
▁photos	-9.93868
▁window	-9.93893
▁finished	-9.93983
▁skills	-9.94122
▁2.	-9.94134
▁relatively	-9.94249
▁identity	-9.94265
▁decide	-9.94291
▁hate	-9.94376
▁Church	-9.94376
▁peace	-9.94454
▁views	-9.94466
▁Lee	-9.94497
▁heat	-9.94627
▁taxes	-9.94754
▁tough	-9.94806
▁Hill	-9.94806
gen	-9.94858
▁measures	-9.94915
▁increasing	-9.94932
▁29	-9.94972
ten	-9.95079
ham	-9.95092
▁removed	-9.95175
▁Ar	-9.95255
▁happening	-9.95351
▁protection	-9.95402
que	-9.95412
▁tells	-9.9542
▁sports	-9.95487
▁connection	-9.95507
▁Richard	-9.95768
ek	-9.95775
▁handle	-9.95808
▁professor	-9.95924
mm	-9.95992
▁Secretary	-9.96013
▁prior	-9.96056
▁gain	-9.96058
▁slightly	-9.96081
▁mental	-9.96084
▁domestic	-9.96183
▁Joe	-9.96254
▁suggests	-9.96283
▁Ma	-9.96362
▁net	-9.96395
▁apply	-9.96402
▁hurt	-9.96494
▁thanks	-9.96499
▁cells	-9.96513
▁faith	-9.96709
▁figures	-9.96735
▁Bitcoin	-9.96787
▁speaking	-9.96877
For	-9.96892
▁multi	-9.96911
▁birth	-9.96986
▁Back	-9.97146
▁Commission	-9.97193
▁false	-9.97195
▁favor	-9.9738
▁determine	-9.97396
▁degree	-9.97404
When	-9.97436
▁equal	-9.97582
▁strength	-9.97587
▁fellow	-9.97633
▁decisions	-9.97677
▁trouble	-9.97692
▁dropped	-9.97834
▁regime	-9.97885
▁environmental	-9.97927
▁failure	-9.97947
▁alleged	-9.97952
▁alternative	-9.97964
▁College	-9.98043
▁operating	-9.98044
▁helping	-9.98051
▁defensive	-9.98077
▁planned	-9.98089
▁Jan	-9.98105
▁impossible	-9.98128
▁Federal	-9.98274
▁Good	-9.98319
▁arrived	-9.98335
▁models	-9.98389
ning	-9.98407
▁possibly	-9.98425
ya	-9.98507
▁District	-9.98558
▁apparently	-9.98583
▁Se	-9.98635
▁Show	-9.98657
▁survey	-9.98668
▁elements	-9.98692
▁variety	-9.98729
▁steps	-9.9876
▁interests	-9.98772
▁wish	-9.98811
▁imagine	-9.98819
▁closer	-9.98838
▁Army	-9.98844
ities	-9.98855
▁committed	-9.98863
▁immigration	-9.98887
▁Toronto	-9.98915
▁Ka	-9.98936
▁Service	-9.98966
▁talks	-9.98986
▁fresh	-9.98994
▁changing	-9.99021
▁Vi	-9.99116
▁Carolina	-9.99118
▁era	-9.99144
▁35	-9.99181
ard	-9.99213
▁flight	-9.99259
▁believes	-9.99269
▁USA	-9.99311
han	-9.99329
▁server	-9.9939
ny	-9.99499
о	-9.995
▁protest	-9.99531
▁sleep	-9.99562
-1	-9.99611
▁developing	-9.99849
▁Amazon	-9.99918
▁https	-9.99977
▁twice	-9.99986
▁command	-9.99991
▁covered	-10.0017
mp	-10.0023
▁writer	-10.0031
ja	-10.0034
dy	-10.0037
▁standards	-10.0037
ac	-10.0043
ab	-10.0044
▁pull	-10.0045
▁bigger	-10.0046
▁carried	-10.0047
▁$2	-10.0048
▁girls	-10.0056
▁agencies	-10.006
▁district	-10.006
▁Director	-10.0063
▁distance	-10.0063
▁di	-10.0065
▁internal	-10.0068
▁capacity	-10.0072
▁feels	-10.0078
▁absolutely	-10.0081
▁tour	-10.0094
▁beautiful	-10.0099
▁animal	-10.01
▁increasingly	-10.0102
▁labor	-10.0112
▁remove	-10.0118
▁draw	-10.0134
▁Before	-10.014
▁seeking	-10.0142
▁touch	-10.015
▁limit	-10.0154
sen	-10.0157
les	-10.0185
So	-10.0194
za	-10.0195
▁strike	-10.0195
▁regarding	-10.0196
▁Matt	-10.0204
▁Still	-10.0208
▁experts	-10.0212
▁prime	-10.0213
▁vision	-10.0236
▁union	-10.024
▁unless	-10.024
▁enter	-10.0241
▁31	-10.0244
▁Middle	-10.0248
▁Sea	-10.0254
▁corporate	-10.0255
▁correct	-10.0264
▁army	-10.0267
80	-10.0271
▁lived	-10.0271
▁owners	-10.0272
▁Follow	-10.0275
▁Power	-10.0295
▁cold	-10.0299
▁developers	-10.0303
▁About	-10.0304
▁soldiers	-10.0307
▁plays	-10.0315
▁infrastructure	-10.0318
▁Boston	-10.032
▁solid	-10.0323
▁90	-10.0329
▁ultimately	-10.0332
▁paying	-10.0344
▁foot	-10.0346
▁Virginia	-10.0351
▁Central	-10.0356
▁t	-10.0368
bar	-10.0372
wa	-10.0373
▁organizations	-10.038
ring	-10.0383
▁losing	-10.0386
▁famous	-10.0388
▁ruling	-10.0399
ig	-10.0403
▁engine	-10.0404
▁healthy	-10.0405
▁Each	-10.041
Re	-10.0421
▁none	-10.0422
house	-10.043
▁Only	-10.0432
▁percentage	-10.0438
▁sector	-10.0446
▁arrest	-10.045
▁Human	-10.0452
▁religion	-10.0453
▁possibility	-10.0454
▁expensive	-10.0455
▁authority	-10.0456
▁Public	-10.0457
▁rare	-10.0462
▁attorney	-10.0464
▁mention	-10.0479
▁perform	-10.048
▁baby	-10.0491
board	-10.0491
▁w	-10.0502
.[	-10.0505
▁;	-10.0505
▁guess	-10.0507
▁sitting	-10.051
▁cuts	-10.0511
ee	-10.0512
▁Dan	-10.0514
▁sounds	-10.052
▁scientific	-10.0531
▁catch	-10.0532
▁applications	-10.0533
▁Francisco	-10.0537
▁homes	-10.0539
▁Su	-10.0545
▁solar	-10.0547
▁specifically	-10.0547
▁Pre	-10.055
▁throw	-10.0555
▁Men	-10.0559
▁(19	-10.0567
ze	-10.0569
▁university	-10.0578
▁broken	-10.0579
▁park	-10.058
▁south	-10.0581
▁discuss	-10.0588
▁files	-10.0589
▁perspective	-10.0596
▁Journal	-10.0603
▁selling	-10.0609
▁mis	-10.0609
ability	-10.061
▁beer	-10.0614
▁UN	-10.0617
▁Watch	-10.0617
▁offering	-10.0618
▁Na	-10.0627
▁seek	-10.0631
▁troops	-10.0636
▁aid	-10.0639
▁k	-10.0642
▁prove	-10.0643
▁cap	-10.0644
▁skin	-10.0645
▁mode	-10.065
can	-10.0661
▁potentially	-10.0665
▁sale	-10.0674
▁units	-10.0676
▁Paris	-10.0685
▁Williams	-10.0687
car	-10.0697
▁Andrew	-10.0697
▁fund	-10.0697
▁200	-10.0698
▁Home	-10.0703
▁familiar	-10.0703
▁originally	-10.0704
▁prepared	-10.0705
▁presented	-10.071
ions	-10.0712
▁sides	-10.0717
▁Ne	-10.0722
▁yards	-10.0722
!"	-10.0731
▁factors	-10.0733
▁located	-10.0734
ji	-10.0734
▁Sam	-10.0735
war	-10.0736
▁responsibility	-10.0738
▁wonder	-10.0738
wood	-10.0747
▁planet	-10.0748
▁combat	-10.0763
▁transition	-10.0781
▁count	-10.0785
game	-10.0786
▁70	-10.0787
▁smart	-10.079
▁estimated	-10.0797
AP	-10.0797
▁appearance	-10.0798
well	-10.0801
12	-10.0802
▁secure	-10.0806
):	-10.0808
▁Turkey	-10.0814
ho	-10.0814
▁council	-10.0816
▁turns	-10.0817
▁accounts	-10.0821
▁streets	-10.0823
▁remained	-10.0828
▁fired	-10.0831
▁error	-10.0843
au	-10.0843
ov	-10.0843
▁criticism	-10.0845
▁Images	-10.0846
ology	-10.0847
▁arm	-10.0847
pm	-10.085
▁intended	-10.0851
▁faster	-10.0858
▁Fire	-10.0868
▁finish	-10.0873
▁equipment	-10.0873
▁starts	-10.0874
▁seconds	-10.0884
▁Life	-10.0884
▁occurred	-10.0888
▁tests	-10.0891
40	-10.0891
▁Though	-10.0897
▁plus	-10.0901
▁purchase	-10.0908
▁River	-10.0916
▁afternoon	-10.0917
▁Steve	-10.0921
▁plenty	-10.0921
ative	-10.0927
free	-10.0929
▁$3	-10.0934
▁shape	-10.0936
▁length	-10.0947
▁Per	-10.0947
▁facing	-10.0952
60	-10.0959
▁Share	-10.0962
▁elected	-10.0969
▁spring	-10.0973
▁affected	-10.0979
▁minimum	-10.0985
▁pair	-10.0987
▁shift	-10.099
▁refused	-10.0991
32	-10.0997
▁markets	-10.1003
▁bringing	-10.1007
▁80	-10.1008
▁cultural	-10.1025
▁factor	-10.1026
down	-10.1028
▁appeal	-10.1038
▁Meanwhile	-10.1043
▁Ro	-10.105
▁dream	-10.1051
▁bus	-10.1054
▁Lake	-10.1073
▁voted	-10.109
▁maintain	-10.1099
▁Labour	-10.11
▁reduced	-10.1101
tion	-10.1105
▁zone	-10.1109
▁arms	-10.1114
▁expressed	-10.1117
▁struggle	-10.1119
▁pieces	-10.1119
▁Saudi	-10.112
▁identify	-10.112
▁politicians	-10.1122
head	-10.1123
▁Are	-10.1124
▁minute	-10.1128
ward	-10.1138
wing	-10.1145
fa	-10.1146
▁Every	-10.1149
▁carbon	-10.1155
▁32	-10.1165
▁agent	-10.1172
▁wearing	-10.1177
▁inter	-10.1178
()	-10.1179
To	-10.1184
▁Sign	-10.1185
▁ones	-10.119
▁pulled	-10.1195
▁Second	-10.1196
▁iPhone	-10.1198
▁guard	-10.1199
hi	-10.1202
▁excited	-10.1213
▁recorded	-10.1215
▁2000	-10.1217
▁package	-10.122
▁conducted	-10.1221
▁Tim	-10.1222
▁weren	-10.1223
▁except	-10.1224
▁evening	-10.1225
▁Pakistan	-10.1226
▁document	-10.1236
▁turning	-10.1236
▁Pi	-10.1242
▁governor	-10.1257
▁proposal	-10.1257
▁represent	-10.126
▁Po	-10.1262
▁announcement	-10.1263
▁Ad	-10.1264
▁opposed	-10.1266
▁Out	-10.1275
▁remaining	-10.1281
ised	-10.1291
▁Force	-10.1292
▁affect	-10.1299
▁passing	-10.1299
▁Project	-10.13
▁seriously	-10.1309
▁replace	-10.1312
▁1990	-10.1312
tro	-10.1312
lan	-10.1317
▁emergency	-10.1318
▁Mc	-10.1321
▁Jim	-10.1328
▁revenue	-10.1329
▁grew	-10.1331
▁vehicles	-10.1335
▁votes	-10.1347
▁reference	-10.1348
▁BBC	-10.1349
▁broke	-10.1349
class	-10.135
▁corner	-10.1352
▁Da	-10.1354
▁achieve	-10.1354
▁route	-10.1358
▁methods	-10.1358
▁Part	-10.1361
As	-10.1363
▁guide	-10.1365
▁considering	-10.1367
16	-10.1371
ver	-10.1372
15	-10.1377
ft	-10.1379
▁centre	-10.1384
▁edge	-10.1389
uk	-10.1389
▁Afghanistan	-10.1391
▁da	-10.1393
ical	-10.1394
▁pointed	-10.1395
▁Daily	-10.1397
▁obviously	-10.1409
▁suspect	-10.1418
▁mark	-10.1423
▁defeat	-10.1433
▁Maybe	-10.1436
▁copy	-10.1436
▁crew	-10.1437
▁reporters	-10.1442
▁opportunities	-10.1446
▁Science	-10.1456
▁approved	-10.1457
▁elections	-10.1461
that	-10.1462
▁aircraft	-10.1465
▁Open	-10.1469
▁consumers	-10.1471
ong	-10.1481
▁resolution	-10.1481
▁Island	-10.1492
ck	-10.1493
▁Te	-10.1496
ang	-10.1496
bit	-10.1498
▁3.	-10.1503
▁seat	-10.1512
▁Take	-10.1526
▁caption	-10.1528
▁2007	-10.1534
▁master	-10.1535
▁talent	-10.1542
▁click	-10.1547
▁panel	-10.1552
▁vast	-10.1554
▁Rep	-10.1559
▁Top	-10.1564
▁exercise	-10.1571
▁experienced	-10.1574
ki	-10.159
▁determined	-10.1599
▁argued	-10.16
▁Blue	-10.1615
▁download	-10.1618
▁greatest	-10.1627
▁Web	-10.1631
work	-10.1633
▁Seattle	-10.1635
▁basically	-10.1636
cy	-10.1636
▁combined	-10.1648
AL	-10.1653
▁stars	-10.1659
▁realize	-10.1663
▁//	-10.167
▁treated	-10.167
▁fix	-10.1671
▁widely	-10.1674
▁Chief	-10.1681
port	-10.1685
▁contrast	-10.1687
▁trans	-10.169
ip	-10.1691
▁challenges	-10.1695
▁appropriate	-10.1696
▁positions	-10.1697
▁advice	-10.1707
▁bought	-10.1712
▁typically	-10.1715
▁herself	-10.1716
▁Ra	-10.1731
▁offense	-10.1737
▁flow	-10.1737
▁creation	-10.1739
▁Ms	-10.174
mon	-10.174
pro	-10.1743
▁enemy	-10.1748
▁novel	-10.1752
▁indeed	-10.176
▁ongoing	-10.1762
▁forms	-10.1773
▁combination	-10.1774
▁humans	-10.1776
▁pop	-10.1783
▁metal	-10.1789
▁injured	-10.1792
▁voting	-10.1794
е	-10.1795
▁significantly	-10.1797
▁Space	-10.1803
▁shop	-10.1808
▁bodies	-10.1811
▁minor	-10.1811
ray	-10.1813
ven	-10.1821
▁signs	-10.1822
My	-10.1823
fi	-10.1823
▁sun	-10.1824
▁newspaper	-10.1826
▁Road	-10.1828
▁walking	-10.1829
▁Har	-10.1832
▁denied	-10.1832
▁Note	-10.1834
▁Sha	-10.1835
▁Ta	-10.1843
▁fill	-10.1845
▁responded	-10.1848
▁jump	-10.1849
▁Korean	-10.1849
ung	-10.1849
▁Jackson	-10.1854
▁connected	-10.1862
▁yes	-10.1866
ot	-10.187
▁copyright	-10.1874
▁attempts	-10.1879
▁print	-10.1886
mi	-10.1895
▁supporting	-10.1897
ped	-10.1898
▁square	-10.1903
ville	-10.1904
▁MP	-10.1913
▁Romney	-10.1916
▁Right	-10.192
▁Long	-10.1921
▁conduct	-10.1928
▁plants	-10.1928
▁writes	-10.1931
▁2015,	-10.1943
▁reportedly	-10.1946
ile	-10.1951
▁2014,	-10.1951
istic	-10.1952
24	-10.1955
▁differences	-10.1959
▁allegations	-10.1963
▁giant	-10.1967
▁lawyer	-10.1967
▁2005	-10.1969
▁institutions	-10.1986
▁plane	-10.1988
17	-10.1992
ph	-10.1996
ST	-10.2002
ick	-10.2003
▁mix	-10.2007
▁confidence	-10.201
▁terrorist	-10.2014
▁weapon	-10.2023
▁Arab	-10.2025
pa	-10.2025
▁decline	-10.2026
▁Ohio	-10.2027
▁Jack	-10.2029
ker	-10.2032
▁suit	-10.2033
▁extreme	-10.2041
▁suffered	-10.2046
▁schedule	-10.2046
ney	-10.2046
▁patient	-10.2047
▁worry	-10.2053
ED	-10.2066
▁fish	-10.2072
▁ourselves	-10.2076
▁effectively	-10.2077
▁wage	-10.2079
▁expansion	-10.2081
▁Ver	-10.2082
king	-10.2082
vo	-10.2082
nt	-10.2084
▁publicly	-10.2088
▁split	-10.2099
▁View	-10.2101
▁unable	-10.2104
▁moral	-10.2108
lu	-10.2114
▁jail	-10.2116
▁trend	-10.212
▁emails	-10.2121
▁privacy	-10.2124
▁CNN	-10.2132
90	-10.2133
▁violent	-10.2135
light	-10.215
▁completed	-10.2151
▁crimes	-10.2159
▁injuries	-10.2162
with	-10.2168
▁leads	-10.2173
▁weather	-10.2182
▁Best	-10.2186
called	-10.2186
▁Am	-10.2189
▁motion	-10.2201
mb	-10.2202
▁bike	-10.2212
tor	-10.2215
▁reporting	-10.2215
▁tech	-10.2216
▁PM	-10.2216
▁activists	-10.222
▁picked	-10.222
▁chain	-10.2228
▁Mi	-10.223
▁Social	-10.2231
▁numerous	-10.2238
▁Board	-10.2244
▁transfer	-10.2247
▁nearby	-10.2247
▁r	-10.2249
▁shut	-10.2254
▁500	-10.2256
▁hopes	-10.2275
▁ordered	-10.2287
▁artist	-10.2289
ium	-10.229
▁William	-10.2295
▁shouldn	-10.2299
▁liberal	-10.2299
▁talked	-10.2304
▁secretary	-10.2305
▁youth	-10.231
▁distribution	-10.2322
▁capable	-10.2323
point	-10.2332
gi	-10.2333
▁Year	-10.2334
▁listen	-10.2334
▁editor	-10.2334
▁delivered	-10.2336
▁argue	-10.2347
▁desire	-10.2348
▁Bob	-10.2351
▁sat	-10.2351
don	-10.2353
▁creative	-10.2367
▁stands	-10.2371
▁Dec	-10.2372
▁apps	-10.2375
#	-10.2378
▁earth	-10.2378
▁initially	-10.2385
pre	-10.2386
▁Ha	-10.239
▁session	-10.2391
▁technical	-10.2397
▁drink	-10.2397
▁drivers	-10.2399
▁declined	-10.2399
▁native	-10.2404
▁detail	-10.2411
11	-10.2411
▁Muslims	-10.2413
▁Where	-10.2414
tra	-10.2414
▁armed	-10.2422
▁Next	-10.243
▁ISIS	-10.2431
▁sport	-10.2432
▁loved	-10.2433
more	-10.2436
▁scheduled	-10.2438
▁contains	-10.2443
▁45	-10.2443
▁missed	-10.2445
▁totally	-10.2448
▁bed	-10.2451
▁reaction	-10.2458
▁classic	-10.2461
а	-10.2476
▁currency	-10.2476
▁warned	-10.2477
▁y	-10.2479
▁restaurant	-10.2485
▁Stephen	-10.2487
▁performed	-10.2489
▁l	-10.2492
▁Christmas	-10.2498
▁Art	-10.2506
▁Ukraine	-10.2509
-3	-10.251
▁flat	-10.2514
mail	-10.2516
▁helps	-10.2522
che	-10.2529
ach	-10.253
▁default	-10.2531
▁Barack	-10.2543
▁accepted	-10.2545
▁matters	-10.2554
ification	-10.2555
ru	-10.2561
▁Ke	-10.2574
vi	-10.2584
="	-10.2585
▁waste	-10.2593
▁flag	-10.2593
▁2013,	-10.26
▁Ba	-10.2601
▁warning	-10.2603
▁wild	-10.2612
▁historical	-10.2615
hu	-10.2617
▁magazine	-10.2618
berg	-10.262
▁necessarily	-10.2622
▁Du	-10.2624
▁client	-10.2625
▁neither	-10.2628
▁deliver	-10.2629
▁ride	-10.2633
▁Kim	-10.2636
▁phase	-10.2637
▁tree	-10.264
▁guilty	-10.2641
▁lawsuit	-10.2642
▁Three	-10.2643
▁4.	-10.2644
▁franchise	-10.2645
▁1980	-10.2652
▁declared	-10.2655
▁Daniel	-10.2657
long	-10.2657
▁pool	-10.2658
▁films	-10.2661
▁script	-10.2664
▁essentially	-10.2666
her	-10.2671
▁listed	-10.2674
▁signal	-10.2691
▁output	-10.2693
▁radical	-10.2696
▁fly	-10.2705
▁recognize	-10.2707
ay	-10.2707
▁explains	-10.2721
▁rape	-10.2724
▁NBA	-10.273
▁linked	-10.2731
▁shoot	-10.2741
▁married	-10.2751
▁surrounding	-10.2752
use	-10.2753
▁yesterday	-10.2759
▁pictures	-10.276
▁pattern	-10.2761
▁Grand	-10.2761
▁facility	-10.2765
▁Thank	-10.2766
▁harm	-10.2767
ging	-10.2772
▁materials	-10.2773
▁filled	-10.2774
▁button	-10.2775
▁island	-10.2779
▁2018	-10.2781
▁advanced	-10.2781
ren	-10.2782
▁Play	-10.2786
▁promise	-10.2791
▁regulations	-10.2793
▁doctor	-10.2795
▁feed	-10.2796
▁expand	-10.2797
▁treat	-10.2811
▁seasons	-10.2812
let	-10.2816
▁faced	-10.2821
▁stood	-10.2828
▁improved	-10.2831
▁entry	-10.2831
▁Colorado	-10.2834
▁Pa	-10.2837
▁surprised	-10.2837
▁relations	-10.2837
{	-10.284
▁represents	-10.2845
▁storage	-10.2857
▁alcohol	-10.2858
▁opponent	-10.2864
▁temperature	-10.2872
De	-10.2876
▁Live	-10.288
▁meat	-10.288
▁Davis	-10.2883
▁tiny	-10.2883
dis	-10.2884
▁2004	-10.2888
▁bomb	-10.289
-2	-10.2891
▁assume	-10.2892
ani	-10.2893
▁consumer	-10.2893
▁Van	-10.2896
▁heavily	-10.2898
▁Love	-10.2899
▁grand	-10.2902
▁commitment	-10.2903
▁everybody	-10.2917
▁prefer	-10.292
▁statements	-10.2928
▁recommend	-10.2929
▁Perhaps	-10.293
▁sought	-10.2933
▁signing	-10.2936
▁Sports	-10.2937
▁rising	-10.2941
▁videos	-10.2942
run	-10.2942
▁Ni	-10.2952
▁Alex	-10.2957
▁Palestinian	-10.2959
▁messages	-10.296
▁apart	-10.2966
▁forget	-10.2967
▁expression	-10.2968
▁leaves	-10.2978
▁agenda	-10.298
▁Jesus	-10.2983
▁suffering	-10.2984
▁extent	-10.2992
▁Story	-10.2994
26	-10.2994
ik	-10.2999
▁suicide	-10.3004
▁winter	-10.301
▁sentence	-10.3012
style	-10.3013
▁journey	-10.3021
▁wave	-10.3022
▁Frank	-10.3024
▁Michigan	-10.3033
▁objects	-10.3033
ries	-10.304
▁Eric	-10.3051
state	-10.3051
▁Houston	-10.3053
▁democracy	-10.3061
▁pages	-10.3065
▁leg	-10.3067
▁opposite	-10.3069
▁receiving	-10.3069
▁cycle	-10.3083
▁vice	-10.3089
▁Network	-10.3093
▁wealth	-10.3094
▁boys	-10.3096
▁buildings	-10.3098
▁excellent	-10.3098
▁updates	-10.3099
▁Detroit	-10.31
70	-10.3101
level	-10.3101
▁buying	-10.3107
▁proper	-10.3111
▁anywhere	-10.3113
▁shall	-10.3118
▁investors	-10.3119
cha	-10.312
▁Lord	-10.312
▁Jo	-10.3122
▁Cor	-10.3123
▁Club	-10.3123
▁YouTube	-10.3124
▁welcome	-10.3134
▁existence	-10.3135
▁Women	-10.3139
ball	-10.314
▁zero	-10.3141
▁selection	-10.3144
▁Ireland	-10.3146
▁select	-10.3147
▁2006	-10.3147
▁Nick	-10.3148
19	-10.3149
▁findings	-10.3153
100	-10.3158
▁regional	-10.3158
▁threats	-10.3159
▁discussed	-10.3161
▁Brian	-10.3161
▁experiences	-10.3162
▁younger	-10.3163
▁links	-10.3165
related	-10.3168
▁sharing	-10.317
▁mine	-10.3171
▁entered	-10.3172
ina	-10.3173
▁Games	-10.3176
ez	-10.3178
▁consistent	-10.318
▁essential	-10.3182
▁Rock	-10.3184
▁Roman	-10.3185
▁wear	-10.319
▁expert	-10.3193
▁wake	-10.3194
len	-10.3198
99	-10.32
▁begins	-10.3201
▁allegedly	-10.3202
▁describe	-10.3204
bi	-10.3213
ING	-10.3214
▁marketing	-10.3216
ns	-10.3218
▁Georgia	-10.3224
▁breaking	-10.3224
▁Cruz	-10.3226
▁defend	-10.3228
▁roughly	-10.323
▁Asia	-10.3231
▁miss	-10.3232
▁movies	-10.3234
▁fairly	-10.3236
▁$5	-10.3239
mar	-10.3245
▁Kevin	-10.3245
gar	-10.3248
▁sample	-10.325
▁stress	-10.3251
▁thoughts	-10.3258
▁follows	-10.3261
▁consequences	-10.3263
▁studio	-10.327
▁admitted	-10.3274
▁scored	-10.3275
▁practices	-10.3278
▁plot	-10.3283
▁adds	-10.3286
▁micro	-10.3288
▁element	-10.3288
▁Soviet	-10.3288
▁serving	-10.3289
▁doctors	-10.3296
▁impressive	-10.3297
▁brief	-10.3298
▁2012,	-10.3298
▁urban	-10.3317
▁readers	-10.3324
▁manner	-10.3324
▁songs	-10.3343
▁somewhat	-10.3344
▁Arizona	-10.3345
▁strange	-10.3345
▁properties	-10.3345
▁h	-10.3349
▁applied	-10.3351
▁approval	-10.3351
▁Land	-10.3354
▁narrative	-10.3357
▁Bi	-10.3358
▁2,	-10.3358
▁warm	-10.3363
▁mainstream	-10.3364
▁battery	-10.3365
▁fewer	-10.3368
▁guns	-10.3368
64	-10.3373
▁Oct	-10.3378
▁Italian	-10.3388
▁bitcoin	-10.3388
▁belief	-10.3392
▁Ja	-10.3395
▁Charles	-10.3396
▁unlikely	-10.3401
▁sight	-10.3401
▁division	-10.3403
▁earned	-10.3406
▁rally	-10.3407
▁NASA	-10.3412
▁replaced	-10.3416
▁advance	-10.3422
▁nations	-10.3425
▁Jeff	-10.3426
▁controversial	-10.3433
▁literally	-10.3437
18	-10.3439
▁Water	-10.3442
rate	-10.3442
▁chairman	-10.3452
▁tournament	-10.3461
▁AP	-10.3464
▁port	-10.3467
▁Putin	-10.347
app	-10.348
▁knowing	-10.3482
▁detailed	-10.3484
▁causes	-10.3484
▁sister	-10.3486
▁colleagues	-10.3486
▁Valley	-10.3487
▁Energy	-10.3488
▁Catholic	-10.3489
ible	-10.3491
▁faces	-10.3493
▁watched	-10.35
zi	-10.35
bb	-10.3503
▁comfortable	-10.3506
▁proud	-10.3508
▁Real	-10.351
▁DC	-10.3514
▁protests	-10.3514
▁broadcast	-10.3515
▁na	-10.3516
▁shots	-10.3518
▁emotional	-10.3522
star	-10.3523
ford	-10.3534
name	-10.3537
▁dedicated	-10.3537
▁harder	-10.3537
▁universe	-10.3542
▁agents	-10.3544
▁pushing	-10.3546
▁campus	-10.3547
▁adult	-10.3548
▁frequently	-10.3553
▁refugees	-10.3556
▁pushed	-10.3564
▁dealing	-10.3566
▁updated	-10.3567
▁Click	-10.3576
▁opponents	-10.3578
▁debut	-10.3583
▁usual	-10.3591
▁Young	-10.3592
▁Oh	-10.3592
ow	-10.3594
jo	-10.36
▁possession	-10.36
▁quarterback	-10.3601
je	-10.3603
▁holds	-10.361
ai	-10.3611
▁kid	-10.3611
▁competitive	-10.3614
fer	-10.3614
▁closely	-10.3622
▁crazy	-10.3626
▁attend	-10.3627
yn	-10.3629
▁Old	-10.3629
▁blame	-10.3631
ap	-10.3633
▁library	-10.3638
▁Inc	-10.3642
▁Ti	-10.3646
▁realized	-10.3652
▁Irish	-10.3655
▁5.	-10.3655
▁grown	-10.366
▁hotel	-10.366
▁upcoming	-10.3662
▁classes	-10.3663
oc	-10.3665
ations	-10.3668
▁constant	-10.3672
▁attempted	-10.3675
twitter	-10.368
▁industrial	-10.3681
▁anyway	-10.3686
ell	-10.369
American	-10.3693
▁stores	-10.3694
75	-10.3695
▁importance	-10.3699
▁ancient	-10.3704
▁PS	-10.3704
▁hardware	-10.3713
▁Asian	-10.3735
▁carrying	-10.3741
▁defined	-10.3742
▁Italy	-10.3744
▁struck	-10.375
▁neighborhood	-10.3754
▁Check	-10.3759
▁frame	-10.3762
ery	-10.3762
▁deeply	-10.3768
▁Any	-10.3771
▁33	-10.3771
▁hoping	-10.3773
▁immediate	-10.378
▁Rights	-10.3787
ou	-10.3787
▁Miami	-10.3788
▁browser	-10.3789
ib	-10.379
▁mouth	-10.3796
▁featured	-10.3799
▁Gen	-10.3802
▁immigrants	-10.3802
▁solve	-10.3821
▁fundamental	-10.3826
▁Ford	-10.3827
ino	-10.3832
▁ring	-10.3833
▁stick	-10.3835
iz	-10.3838
▁participants	-10.384
▁formed	-10.384
▁profile	-10.3845
▁Jews	-10.3847
▁targeted	-10.385
▁truck	-10.385
tal	-10.3852
▁alongside	-10.3855
▁fashion	-10.3856
▁assistant	-10.3859
▁relevant	-10.3867
▁adults	-10.3871
48	-10.3871
▁Among	-10.3878
▁visual	-10.3878
▁Bowl	-10.3881
▁Bra	-10.3882
▁Unfortunately	-10.3883
▁virtual	-10.3883
▁assets	-10.3889
▁license	-10.3896
▁Royal	-10.3897
▁roll	-10.3897
▁switch	-10.39
▁TO	-10.3906
▁Jr	-10.3908
▁volume	-10.391
▁folks	-10.3912
▁exciting	-10.3929
▁Ku	-10.3933
▁gap	-10.3936
▁Ru	-10.3937
▁bear	-10.3939
▁storm	-10.3939
50	-10.3944
▁relative	-10.3945
▁Defense	-10.395
▁customer	-10.3952
▁joint	-10.3955
▁Adam	-10.3957
▁examples	-10.3966
you	-10.3972
▁coalition	-10.3974
▁experiment	-10.3978
▁networks	-10.3983
▁walked	-10.3989
▁Greek	-10.399
▁powers	-10.3991
▁typical	-10.3992
29	-10.3995
get	-10.3997
▁Ca	-10.4
▁lies	-10.4001
▁proof	-10.4002
▁village	-10.401
▁Four	-10.4011
▁Which	-10.4011
tin	-10.4012
▁CIA	-10.4015
▁$4	-10.4016
uff	-10.4017
▁Moore	-10.402
▁acting	-10.4024
▁Gold	-10.4026
▁sweet	-10.4028
pping	-10.4036
▁protesters	-10.4037
▁properly	-10.4038
▁Va	-10.4038
▁squad	-10.4041
▁Chi	-10.4041
▁gear	-10.4045
▁Attorney	-10.4046
▁escape	-10.4048
▁bid	-10.4052
ep	-10.4054
▁fail	-10.4054
US	-10.4056
IS	-10.4058
▁database	-10.4067
▁topic	-10.4067
▁pilot	-10.4069
▁communication	-10.407
▁channel	-10.4071
▁partners	-10.4071
▁hell	-10.4074
hr	-10.4077
▁Spanish	-10.4079
▁matches	-10.4079
▁approximately	-10.4082
▁capture	-10.4084
▁circumstances	-10.4093
▁brings	-10.4094
▁contain	-10.4094
▁hundred	-10.4094
▁mistake	-10.4099
▁artists	-10.4101
13	-10.4107
pp	-10.4108
tz	-10.411
▁empty	-10.4111
▁northern	-10.4112
▁Finally	-10.4112
▁lots	-10.4114
foot	-10.4114
▁earn	-10.4118
low	-10.4118
▁Far	-10.412
▁format	-10.4122
▁functions	-10.4123
▁protected	-10.4124
▁crash	-10.413
▁pan	-10.413
▁involving	-10.4131
▁Agency	-10.4138
▁chose	-10.4139
▁Louis	-10.414
▁referred	-10.414
▁honor	-10.4141
▁articles	-10.4147
▁mayor	-10.4151
▁mo	-10.4163
ff	-10.4163
eg	-10.4168
▁34	-10.4169
14	-10.417
▁evil	-10.4171
▁Southern	-10.4171
▁increases	-10.4179
▁2016,	-10.4179
▁fixed	-10.4183
▁depth	-10.4189
▁taste	-10.4189
uck	-10.4192
▁ho	-10.4194
▁Ten	-10.42
▁deaths	-10.4209
see	-10.4209
▁Report	-10.4209
▁teacher	-10.421
▁electric	-10.4211
▁inspired	-10.4214
▁terrorism	-10.4216
▁chemical	-10.4216
▁Senator	-10.4217
▁£	-10.422
▁repeatedly	-10.4225
▁pic	-10.4229
▁manage	-10.4229
▁developer	-10.4233
34	-10.4234
du	-10.4234
▁explore	-10.4237
49	-10.4238
▁glass	-10.4242
▁atmosphere	-10.4244
▁observed	-10.4251
ned	-10.4253
▁owned	-10.4255
▁auto	-10.4256
▁blow	-10.4256
▁moves	-10.4258
▁Miller	-10.4262
▁Have	-10.4268
▁champion	-10.4272
ified	-10.4282
▁causing	-10.4284
▁height	-10.4285
▁sending	-10.4286
She	-10.4287
▁comparison	-10.4289
▁afford	-10.4289
▁pitch	-10.429
▁tight	-10.4294
vin	-10.4295
▁OS	-10.4295
ura	-10.4299
▁deck	-10.4299
▁fat	-10.4301
▁moments	-10.4302
▁somewhere	-10.4302
All	-10.4304
▁promote	-10.4306
▁allies	-10.4309
▁aside	-10.431
▁Hollywood	-10.4311
▁bunch	-10.4313
▁Did	-10.4314
38	-10.4318
▁revolution	-10.4323
ev	-10.4326
▁targets	-10.4329
▁payment	-10.433
▁random	-10.4332
▁scheme	-10.4337
▁loan	-10.4338
▁Pat	-10.4343
▁province	-10.4344
04	-10.4345
▁engage	-10.4351
set	-10.4352
45	-10.4352
▁definition	-10.4356
▁facilities	-10.4358
▁requirements	-10.4365
▁severe	-10.4369
▁slowly	-10.4375
▁Republic	-10.4376
▁estate	-10.4387
▁App	-10.439
▁southern	-10.4392
ue	-10.4396
▁merely	-10.4398
▁roster	-10.4399
▁strongly	-10.4404
▁commission	-10.4404
▁Jersey	-10.4405
▁plastic	-10.4405
▁interface	-10.4406
log	-10.4407
▁sets	-10.4408
▁coffee	-10.4412
▁skill	-10.4413
IN	-10.4415
▁east	-10.442
▁lay	-10.4421
▁2015.	-10.4421
▁Make	-10.4423
▁promised	-10.4426
▁Night	-10.4427
▁teaching	-10.4438
▁destroyed	-10.4444
▁winner	-10.4445
▁2011,	-10.4446
▁Islam	-10.4448
▁ha	-10.4453
▁compete	-10.4455
om	-10.4457
▁ends	-10.446
▁poverty	-10.4462
▁progressive	-10.4466
▁Such	-10.4469
31	-10.4473
▁threatened	-10.4473
ID	-10.4474
▁row	-10.4476
▁cheap	-10.4484
▁noticed	-10.4485
▁36	-10.4487
36	-10.4489
▁Special	-10.4491
box	-10.4492
28	-10.4494
ably	-10.4499
▁terror	-10.45
▁eating	-10.4505
▁Wilson	-10.4508
▁bag	-10.4514
ade	-10.4517
▁stream	-10.4521
▁2003	-10.4527
▁string	-10.4533
▁worried	-10.4542
▁personally	-10.4542
▁survive	-10.4545
▁boost	-10.4549
▁apartment	-10.4561
▁somehow	-10.4562
▁Ge	-10.4565
▁Society	-10.4569
▁reputation	-10.4569
▁unknown	-10.4571
▁soft	-10.4572
▁tested	-10.4572
▁alive	-10.4577
ella	-10.4581
▁sick	-10.4581
▁award	-10.4582
key	-10.4587
▁dry	-10.4587
▁suddenly	-10.4589
:00	-10.4589
▁2001	-10.459
des	-10.4591
▁audio	-10.4591
▁facts	-10.4594
▁rain	-10.4595
▁governments	-10.4598
▁extended	-10.4599
▁Gar	-10.4603
▁west	-10.4604
▁cutting	-10.4609
▁49	-10.4612
▁tape	-10.4612
ator	-10.4613
▁Tony	-10.4616
▁collect	-10.4623
▁coal	-10.4623
▁snow	-10.4625
▁latter	-10.4632
▁exposure	-10.4633
▁(1	-10.4637
▁abortion	-10.4638
▁Ed	-10.464
▁1970	-10.464
▁broad	-10.4641
▁Thanks	-10.4642
▁contest	-10.4642
▁Egypt	-10.4645
▁Jordan	-10.4651
▁Spain	-10.4654
▁reflect	-10.4654
▁spirit	-10.4657
▁territory	-10.4659
▁emissions	-10.466
fe	-10.4674
▁weak	-10.4679
▁understood	-10.468
▁defence	-10.468
▁teachers	-10.4681
▁load	-10.4682
▁encourage	-10.4682
▁Minnesota	-10.4687
▁obtained	-10.4688
и	-10.4691
▁relationships	-10.4694
▁thank	-10.4701
▁acts	-10.4703
▁Brazil	-10.4708
▁install	-10.4714
▁authors	-10.4714
bin	-10.4715
▁Jay	-10.4718
▁Par	-10.4721
▁reveal	-10.4722
▁Joseph	-10.4722
▁resistance	-10.4724
▁300	-10.4733
▁NHL	-10.4737
▁2016.	-10.4739
▁Christ	-10.474
37	-10.4743
▁mixed	-10.4748
▁fraud	-10.475
▁ruled	-10.4751
▁occur	-10.4755
Do	-10.4759
▁ending	-10.4761
▁Kelly	-10.4766
▁DNA	-10.4767
▁maximum	-10.4771
▁Nov	-10.4771
ure	-10.4772
▁rent	-10.4774
▁actor	-10.4776
▁exact	-10.4777
▁somebody	-10.4785
▁journalists	-10.4786
▁drawn	-10.4787
▁veteran	-10.4787
cent	-10.479
▁Week	-10.4792
▁attacked	-10.4792
▁www	-10.4801
new	-10.4805
▁permission	-10.4808
▁electricity	-10.4808
▁Indeed	-10.4809
▁fifth	-10.4812
▁Wa	-10.4812
▁LA	-10.4813
▁requests	-10.4813
▁equivalent	-10.4816
▁magic	-10.4819
▁category	-10.4824
00	-10.4824
▁heads	-10.4827
▁stuck	-10.4828
-4	-10.4836
▁Hi	-10.4836
▁Nations	-10.4837
town	-10.4841
▁falling	-10.4842
▁surveillance	-10.4843
▁implement	-10.4844
▁Scotland	-10.4849
▁crucial	-10.4849
▁locations	-10.4852
▁founder	-10.4853
LE	-10.4854
▁CO	-10.4857
▁chair	-10.4858
ett	-10.4858
▁elite	-10.4861
▁reasonable	-10.4863
▁flying	-10.4863
▁Ron	-10.4869
int	-10.4873
▁versions	-10.4874
▁destroy	-10.4874
▁custom	-10.4878
▁outcome	-10.4878
▁Ex	-10.488
▁profit	-10.488
▁wins	-10.4885
▁regularly	-10.4889
▁tied	-10.4906
▁perfectly	-10.4911
▁framework	-10.4913
▁kick	-10.492
▁communications	-10.4921
▁officially	-10.4924
▁techniques	-10.4925
▁sugar	-10.4927
▁parking	-10.4927
▁selected	-10.4929
cho	-10.4931
▁diet	-10.4938
▁captured	-10.4939
▁j	-10.4939
▁gotten	-10.494
▁stronger	-10.494
▁Si	-10.4941
▁Tu	-10.4943
▁fees	-10.4946
▁smoke	-10.4949
▁ignore	-10.4952
▁comic	-10.4953
ris	-10.4955
era	-10.4957
mit	-10.4958
▁Pacific	-10.496
iv	-10.4963
▁upper	-10.4968
▁Email	-10.4973
▁Fa	-10.4975
▁lie	-10.498
25	-10.4981
▁rejected	-10.4982
gate	-10.4985
▁le	-10.4985
▁Democrat	-10.4985
▁cat	-10.4988
▁pace	-10.4989
▁fake	-10.499
▁System	-10.499
▁aspects	-10.4991
▁processes	-10.4992
▁Taylor	-10.4993
▁confident	-10.4994
▁API	-10.5005
ding	-10.5008
▁Business	-10.5008
▁driven	-10.5013
▁awesome	-10.5013
ada	-10.5016
▁employment	-10.5016
▁Wi	-10.5016
▁Dallas	-10.502
▁danger	-10.5021
▁pot	-10.5021
▁que	-10.5023
▁honest	-10.5023
▁constantly	-10.5025
▁angry	-10.5035
▁Add	-10.5041
some	-10.5042
ette	-10.5044
▁reporter	-10.5047
▁returns	-10.5048
▁dollar	-10.5051
05	-10.5054
08	-10.5057
▁critics	-10.5058
ious	-10.5059
▁chosen	-10.5062
▁Jon	-10.5066
▁controlled	-10.507
▁conclusion	-10.5073
▁explanation	-10.5073
ano	-10.5074
▁complaint	-10.5076
▁concluded	-10.5078
▁limits	-10.508
py	-10.508
af	-10.5087
▁aggressive	-10.5093
ological	-10.5093
▁ideal	-10.5093
▁NBC	-10.5098
▁dozen	-10.5105
▁Company	-10.5107
▁employee	-10.5112
▁primarily	-10.5121
▁gaming	-10.5122
ice	-10.5122
33	-10.5126
tu	-10.5134
▁feedback	-10.5137
pi	-10.5137
form	-10.5141
▁Premier	-10.5143
▁claiming	-10.5145
▁bright	-10.5147
SA	-10.5147
▁downtown	-10.5149
▁incredible	-10.5149
list	-10.5149
▁implementation	-10.5154
86	-10.5158
ok	-10.516
Photo	-10.516
▁du	-10.5163
▁Global	-10.5169
▁scandal	-10.5173
▁input	-10.5174
ini	-10.5175
▁anymore	-10.5175
▁Use	-10.5176
▁Music	-10.5179
▁estimates	-10.518
ara	-10.5181
▁continuing	-10.5182
▁ticket	-10.5189
▁worldwide	-10.5191
si	-10.5193
▁Ken	-10.5199
ub	-10.5201
gan	-10.5203
▁Oregon	-10.5204
▁48	-10.5207
az	-10.5208
▁Light	-10.5209
▁informed	-10.5212
▁Pe	-10.5224
▁enemies	-10.5224
▁Following	-10.5225
▁cloud	-10.5228
▁baseball	-10.5232
▁ma	-10.5233
▁Iowa	-10.5235
▁elsewhere	-10.5239
▁arguments	-10.5245
ide	-10.5247
▁raising	-10.5253
▁weird	-10.5254
month	-10.5258
▁ties	-10.5258
▁journalist	-10.5261
▁fighters	-10.5261
▁Judge	-10.5261
▁2014.	-10.5262
▁vulnerable	-10.5263
▁Video	-10.5264
ng	-10.5266
▁Wars	-10.5272
▁farm	-10.5273
▁operate	-10.5273
▁(2	-10.5275
▁technologies	-10.5276
▁2010,	-10.5278
▁generate	-10.5281
▁corruption	-10.5282
zo	-10.5283
▁Constitution	-10.5285
▁payments	-10.5287
making	-10.5287
▁innovation	-10.529
▁trading	-10.529
▁academic	-10.5291
▁enable	-10.5295
▁risks	-10.5295
▁Alabama	-10.5298
▁exposed	-10.5299
▁wonderful	-10.53
▁accurate	-10.5304
▁nobody	-10.5304
▁drawing	-10.5307
life	-10.5313
▁disaster	-10.5314
▁regions	-10.5315
▁collected	-10.5319
▁Foreign	-10.532
27	-10.532
▁kinds	-10.5324
▁parent	-10.5324
▁bridge	-10.5327
▁item	-10.5329
▁river	-10.5331
▁trees	-10.5334
air	-10.5335
▁Education	-10.5342
35	-10.5353
▁directed	-10.5355
▁incredibly	-10.5366
▁Thus	-10.5367
▁Dis	-10.537
▁aim	-10.5371
▁valuable	-10.5372
▁purposes	-10.5373
▁theme	-10.5379
▁recording	-10.5379
▁Call	-10.538
▁assistance	-10.538
▁sky	-10.5386
▁terrible	-10.5387
▁extension	-10.539
▁Che	-10.5403
▁contributed	-10.5404
▁bio	-10.5407
▁adopted	-10.5408
▁permanent	-10.541
are	-10.5411
▁Price	-10.5412
▁sad	-10.5416
▁Northern	-10.5418
!)	-10.542
▁county	-10.5423
▁layer	-10.5427
ju	-10.5428
▁Mon	-10.5433
hand	-10.5434
▁complicated	-10.5436
play	-10.5438
par	-10.5439
▁programming	-10.5442
▁commit	-10.5446
ski	-10.5446
▁dinner	-10.5455
▁resulting	-10.5456
▁polls	-10.5459
▁prepare	-10.546
▁Head	-10.5461
▁Manchester	-10.5462
▁rating	-10.5464
▁exit	-10.5468
▁western	-10.5469
▁tradition	-10.5473
▁Za	-10.5474
▁Rob	-10.5474
▁Ga	-10.5482
▁foundation	-10.5483
46	-10.5483
▁transport	-10.5486
▁Sky	-10.5491
SE	-10.5499
hether	-10.5509
su	-10.551
▁meetings	-10.5511
▁taught	-10.5515
ble	-10.5515
LA	-10.552
▁notion	-10.5522
39	-10.5523
▁lawmakers	-10.5523
act	-10.5526
▁recovery	-10.5528
▁blind	-10.5529
▁exists	-10.5535
▁Cha	-10.5535
▁el	-10.5538
á	-10.5543
▁quiet	-10.5545
▁cr	-10.5551
▁drinking	-10.5554
▁Mary	-10.5559
▁plate	-10.5562
▁cable	-10.5564
▁Test	-10.5565
▁OK	-10.5567
▁dogs	-10.557
▁vi	-10.5571
scale	-10.5574
book	-10.5576
IP	-10.5579
▁contribute	-10.5581
▁rose	-10.5583
▁consumption	-10.5583
▁penalty	-10.5584
▁formal	-10.5585
▁surprising	-10.5588
nes	-10.559
▁prominent	-10.5596
▁shock	-10.5596
who	-10.5597
▁passes	-10.56
▁Development	-10.5606
▁van	-10.5607
▁Linux	-10.5618
▁marked	-10.5621
▁cannabis	-10.5622
▁Jason	-10.5623
▁intellectual	-10.5625
▁Zealand	-10.5629
▁posts	-10.563
▁Philadelphia	-10.5631
▁Tri	-10.5635
44	-10.5638
rick	-10.5639
▁OF	-10.564
Our	-10.564
▁Without	-10.5642
23	-10.5645
▁Eastern	-10.5647
▁Using	-10.5648
▁Data	-10.5651
▁PA	-10.5653
▁pen	-10.5653
▁Source	-10.5653
und	-10.5654
▁blocks	-10.5659
▁medium	-10.566
rk	-10.5665
77	-10.5666
▁38	-10.5669
▁Season	-10.567
▁peak	-10.567
▁boss	-10.5673
▁42	-10.5679
▁racist	-10.5682
▁craft	-10.5685
▁edition	-10.5691
▁exclusive	-10.5692
▁resulted	-10.5702
▁engaged	-10.5703
lock	-10.5703
sch	-10.5706
▁Mayor	-10.5709
▁Ray	-10.571
▁Rick	-10.5711
▁Book	-10.5711
▁console	-10.5714
born	-10.5715
▁personnel	-10.5715
▁Turkish	-10.5716
cher	-10.5716
▁Services	-10.5721
01	-10.5728
ins	-10.5729
▁seats	-10.5729
▁houses	-10.5729
chi	-10.5732
▁represented	-10.5733
▁busy	-10.5735
▁ratio	-10.5737
▁expectations	-10.5739
▁mainly	-10.5739
▁coast	-10.5741
▁noise	-10.5741
▁hang	-10.5742
▁everywhere	-10.5747
▁Coast	-10.5748
RA	-10.575
▁root	-10.5756
▁Anti	-10.576
▁rarely	-10.5763
Ro	-10.5763
▁UFC	-10.5764
▁failing	-10.5765
▁Conservative	-10.5766
▁Review	-10.5767
▁situations	-10.5769
ec	-10.5769
47	-10.577
law	-10.5771
bu	-10.5772
▁orders	-10.5773
▁remote	-10.5774
95	-10.578
▁afraid	-10.5784
▁bi	-10.5791
▁minority	-10.5794
ight	-10.5795
▁components	-10.5795
▁participate	-10.5797
CA	-10.58
▁engineering	-10.5803
▁enjoyed	-10.5805
▁dad	-10.5806
▁37	-10.5807
▁granted	-10.5808
▁electronic	-10.5809
IC	-10.5814
▁letters	-10.5814
▁worker	-10.5817
▁retail	-10.5819
▁answers	-10.582
21	-10.5823
▁connect	-10.5824
ane	-10.5831
▁prize	-10.5831
06	-10.5832
▁medicine	-10.5838
▁aimed	-10.5844
lic	-10.5845
▁proved	-10.5845
ita	-10.5845
▁Bernie	-10.5845
▁organized	-10.5845
▁Nation	-10.5846
▁import	-10.5847
▁accident	-10.5847
▁registered	-10.5848
▁deals	-10.5858
▁dozens	-10.5859
PA	-10.5859
▁establishment	-10.5861
▁Amendment	-10.5862
▁portion	-10.5863
▁Hu	-10.5864
▁sa	-10.5867
▁#1	-10.5871
▁clients	-10.5871
▁fee	-10.5878
▁priority	-10.588
▁Reuters	-10.5881
▁finance	-10.5882
▁constitutional	-10.5886
▁Bell	-10.589
▁\	-10.589
▁apparent	-10.5891
▁Given	-10.5894
▁cup	-10.5898
▁nomination	-10.5901
▁newly	-10.5902
▁convicted	-10.5903
ken	-10.5905
▁Moscow	-10.5909
isation	-10.5917
▁visited	-10.5919
▁Dark	-10.592
▁behaviour	-10.5925
▁machines	-10.5928
▁Civil	-10.5934
▁solutions	-10.5936
▁unusual	-10.5938
oo	-10.5942
water	-10.5943
▁par	-10.5946
▁choices	-10.5947
▁returning	-10.5949
OR	-10.595
ug	-10.595
▁Iraqi	-10.5954
▁degrees	-10.5954
▁Gov	-10.5955
▁AT	-10.5956
▁hole	-10.5961
▁hadn	-10.5965
▁Little	-10.597
▁king	-10.597
▁ill	-10.5978
▁recognition	-10.598
▁tackle	-10.5983
▁funny	-10.599
▁Max	-10.5995
▁Patrick	-10.5996
ola	-10.5998
stone	-10.6003
known	-10.6017
sex	-10.6018
▁fiscal	-10.6028
▁array	-10.6029
▁depending	-10.6031
▁duty	-10.6031
▁History	-10.6032
▁hide	-10.6034
▁petition	-10.6036
")	-10.6039
hour	-10.6047
▁sharp	-10.6049
▁warming	-10.605
▁automatically	-10.6052
▁Sometimes	-10.6053
▁Iranian	-10.6058
▁FC	-10.606
▁pounds	-10.6062
▁Action	-10.6063
▁Cross	-10.6069
-10	-10.607
▁racial	-10.6076
▁Sch	-10.6076
this	-10.6076
▁salt	-10.6079
▁scenario	-10.6079
▁attended	-10.6085
▁express	-10.6088
wi	-10.609
▁2002	-10.6095
▁writers	-10.6098
▁festival	-10.61
art	-10.6104
type	-10.6105
▁installed	-10.6106
zz	-10.6109
▁regardless	-10.6109
▁Policy	-10.611
▁Ab	-10.6111
▁component	-10.6112
▁recognized	-10.6112
▁delay	-10.6113
▁historic	-10.6117
▁AM	-10.6122
▁menu	-10.6126
▁clock	-10.6127
▁Community	-10.6127
▁fought	-10.6132
▁cited	-10.6133
▁CA	-10.6136
▁philosophy	-10.614
ties	-10.614
▁index	-10.6141
▁nominee	-10.6145
▁ocean	-10.6145
▁Look	-10.6145
▁dance	-10.6146
▁surgery	-10.6149
▁Was	-10.6153
▁lawyers	-10.6153
▁sanctions	-10.6155
▁ads	-10.6158
▁generated	-10.6158
▁Age	-10.6165
▁Pan	-10.6167
▁amounts	-10.6167
▁Centre	-10.6167
Con	-10.618
world	-10.618
▁Conference	-10.618
▁principles	-10.6182
▁cameras	-10.6182
▁efficient	-10.6184
▁Disney	-10.6188
▁Atlanta	-10.6188
▁thousand	-10.6191
▁relief	-10.6197
▁hits	-10.6201
▁Stone	-10.6202
▁logic	-10.6206
▁Administration	-10.6213
▁principle	-10.6213
▁Series	-10.6218
▁bills	-10.6225
▁Article	-10.6229
▁u	-10.6233
▁airport	-10.6239
sky	-10.624
ala	-10.6245
57	-10.6249
▁chart	-10.6255
▁bound	-10.6256
▁Rose	-10.6258
▁6.	-10.6264
▁branch	-10.6265
▁Kingdom	-10.627
▁scenes	-10.6277
▁hidden	-10.6278
▁banned	-10.6279
▁Anthony	-10.6297
▁Cameron	-10.6302
▁patterns	-10.6304
▁Again	-10.6304
ud	-10.6308
▁wine	-10.6309
▁tea	-10.6313
▁narrow	-10.6317
Man	-10.6318
gu	-10.6318
▁Navy	-10.632
▁Change	-10.6321
▁founded	-10.6321
▁gained	-10.6325
win	-10.6325
▁firms	-10.6328
▁Several	-10.6338
ius	-10.6344
▁imp	-10.6345
▁Former	-10.6347
▁Dar	-10.6352
▁technique	-10.6353
▁Allen	-10.6356
ose	-10.6357
▁teach	-10.6363
▁Wood	-10.6371
TH	-10.6371
▁hero	-10.6372
room	-10.6373
▁End	-10.6373
▁Ri	-10.6374
▁Trade	-10.6374
▁Parliament	-10.6376
▁gonna	-10.6378
eh	-10.638
▁assessment	-10.638
▁Columbia	-10.6387
▁Professor	-10.6393
▁courts	-10.6394
vis	-10.6395
▁laid	-10.6405
▁bond	-10.6405
▁Mexican	-10.6411
nn	-10.6413
▁negotiations	-10.6415
▁successfully	-10.6416
▁discrimination	-10.6417
▁mess	-10.6419
▁Line	-10.6424
ever	-10.6428
▁Mor	-10.6429
▁producer	-10.6431
▁crack	-10.6432
▁stretch	-10.6433
▁Wisconsin	-10.6436
▁Guardian	-10.6436
▁contained	-10.6438
‘	-10.644
▁containing	-10.6442
▁demands	-10.6443
▁tank	-10.645
▁Information	-10.6451
▁Harry	-10.6453
top	-10.6469
▁Plan	-10.6469
▁Field	-10.6472
▁journal	-10.6473
▁barely	-10.6473
▁65	-10.6475
▁horror	-10.6476
▁gift	-10.648
▁tweet	-10.6482
▁struggling	-10.6484
▁Related	-10.6485
▁shortly	-10.6487
▁laugh	-10.6488
▁exception	-10.6489
▁vital	-10.6494
▁describes	-10.6496
▁chances	-10.6496
▁indicate	-10.6497
▁scoring	-10.65
4%	-10.6501
▁carefully	-10.6503
▁Col	-10.6503
▁emerged	-10.6505
-5	-10.6506
▁tracks	-10.6513
67	-10.6515
put	-10.6515
round	-10.6523
▁sp	-10.6535
▁bug	-10.6538
▁stable	-10.6539
▁investigate	-10.6542
▁stadium	-10.6543
▁Anderson	-10.6547
▁restrictions	-10.655
▁involvement	-10.6552
▁Cal	-10.6553
▁extend	-10.6554
▁external	-10.6554
Star	-10.656
▁regard	-10.6566
▁2013.	-10.6588
▁VR	-10.6588
▁unemployment	-10.6594
▁rapidly	-10.6594
▁Diego	-10.6594
▁1960	-10.6596
85	-10.6596
▁delivery	-10.6597
▁Aug	-10.6598
▁hitting	-10.6599
▁convention	-10.66
▁fields	-10.6601
▁phrase	-10.6607
▁Yu	-10.6608
▁collapse	-10.661
▁Earlier	-10.6611
▁anybody	-10.6616
▁Avenue	-10.6627
▁Austin	-10.663
▁headed	-10.6631
▁retired	-10.6635
▁suffer	-10.6636
▁reduction	-10.6637
▁rail	-10.6641
▁3,	-10.6649
TV	-10.6651
Be	-10.6653
▁transgender	-10.6653
▁motor	-10.6658
med	-10.666
▁1,000	-10.6662
▁aspect	-10.6662
▁IS	-10.6668
▁stations	-10.6669
▁deputy	-10.667
▁Pennsylvania	-10.667
▁visible	-10.6672
▁ABC	-10.6674
▁announce	-10.6675
▁pure	-10.6675
▁welfare	-10.6678
▁footage	-10.668
▁Update	-10.668
▁burn	-10.6689
09	-10.6694
▁democratic	-10.6695
▁Henry	-10.6696
val	-10.6696
▁begun	-10.6699
▁thrown	-10.6705
▁mini	-10.6707
mal	-10.6711
▁manufacturing	-10.6712
har	-10.6713
cing	-10.6714
▁Ze	-10.6715
▁Port	-10.6715
even	-10.6719
▁warrant	-10.672
Ma	-10.6721
sta	-10.6723
▁Championship	-10.6724
hold	-10.6724
▁compare	-10.6729
▁Does	-10.673
post	-10.6733
▁mom	-10.6734
▁Battle	-10.6738
▁Ste	-10.6742
▁Having	-10.6745
▁Bur	-10.6746
▁advertising	-10.6746
▁proven	-10.6754
▁feelings	-10.6754
▁drama	-10.6755
▁register	-10.6755
SP	-10.676
▁succeed	-10.6761
▁indicated	-10.6765
ob	-10.6771
▁strikes	-10.6775
▁thin	-10.6778
▁losses	-10.678
▁entering	-10.6782
od	-10.6792
ack	-10.6793
▁computers	-10.6793
▁complaints	-10.6796
▁Sept	-10.68
▁Ross	-10.68
-19	-10.6803
ari	-10.6807
▁Mad	-10.6809
▁confirm	-10.6809
yard	-10.6811
▁intent	-10.6811
▁anger	-10.6811
MP	-10.6812
ition	-10.6814
▁rely	-10.6816
▁Walker	-10.6819
▁Han	-10.6822
▁grab	-10.6824
▁subjects	-10.6828
pin	-10.6831
▁representative	-10.6832
RE	-10.6835
▁Plus	-10.6836
ute	-10.6836
▁convinced	-10.6837
▁puts	-10.6837
▁Trans	-10.6838
▁hall	-10.6844
▁titles	-10.6846
▁initiative	-10.6846
▁Radio	-10.6849
▁Academy	-10.685
▁handful	-10.685
▁Golden	-10.6851
▁NSA	-10.6852
ado	-10.6852
uch	-10.6861
▁label	-10.6864
8%	-10.6866
▁establish	-10.6866
▁Santa	-10.6866
▁landscape	-10.6867
▁improvement	-10.6868
▁hat	-10.6869
▁shit	-10.6873
▁invited	-10.6887
▁Full	-10.6892
▁Square	-10.6893
▁resource	-10.6896
▁challenging	-10.6902
▁Greece	-10.6902
54	-10.6903
▁saved	-10.6904
▁achieved	-10.6906
▁rear	-10.6907
▁behalf	-10.6907
gue	-10.6907
▁column	-10.6908
ify	-10.6909
▁2012.	-10.6909
▁moon	-10.6917
▁Bad	-10.6917
▁MS	-10.6919
▁mirror	-10.6919
▁Control	-10.692
▁silence	-10.6928
▁unclear	-10.6929
▁tickets	-10.6933
ct	-10.6934
AN	-10.6935
▁forever	-10.6939
▁Beach	-10.694
▁chapter	-10.6945
▁smile	-10.6946
▁soul	-10.695
▁fruit	-10.695
▁practical	-10.6955
▁sin	-10.6957
▁Gaza	-10.6959
▁beliefs	-10.696
65	-10.6964
▁farmers	-10.6969
▁admit	-10.697
AR	-10.6972
▁temporary	-10.6975
▁(3	-10.6978
▁genetic	-10.6978
ES	-10.6978
▁clubs	-10.698
▁Arabia	-10.6994
ps	-10.6996
At	-10.7004
▁eastern	-10.7007
5,000	-10.7014
▁appreciate	-10.7015
▁Vancouver	-10.7017
▁thinks	-10.7019
▁processing	-10.7022
▁pack	-10.7022
hy	-10.7023
tri	-10.7024
▁producing	-10.7025
▁prospect	-10.7031
▁listening	-10.7036
van	-10.7042
▁150	-10.7043
▁ID	-10.7044
▁evolution	-10.7044
AM	-10.7046
▁fiction	-10.7047
▁structures	-10.7054
▁backed	-10.7056
▁Del	-10.7056
ata	-10.706
▁Queen	-10.706
▁tries	-10.7064
▁fa	-10.7065
▁purchased	-10.7066
▁Lewis	-10.7069
51	-10.7075
▁regulation	-10.7076
▁Gu	-10.7076
▁Kansas	-10.7077
▁basketball	-10.7077
▁referring	-10.7078
▁ultimate	-10.708
▁mountain	-10.7082
▁tap	-10.7083
qui	-10.7083
▁400	-10.7084
▁burden	-10.7086
▁McCain	-10.7087
Oh	-10.7092
▁rescue	-10.7095
del	-10.7096
▁episodes	-10.71
▁strip	-10.7101
▁wing	-10.7101
▁intense	-10.7103
▁discover	-10.7106
▁def	-10.7112
▁reducing	-10.7113
▁featuring	-10.7113
▁milk	-10.7113
▁controls	-10.7114
▁contracts	-10.7114
▁Football	-10.7117
▁Ya	-10.7119
▁reaching	-10.7122
▁strategic	-10.7125
▁IN	-10.7127
Getty	-10.7128
▁settlement	-10.7129
▁paint	-10.7132
▁75	-10.7134
▁Page	-10.7136
▁destruction	-10.7139
▁description	-10.7145
▁boat	-10.7148
▁activist	-10.7152
▁$10	-10.7152
fully	-10.7156
▁fantastic	-10.7156
▁Cat	-10.7159
▁rival	-10.7162
▁Anna	-10.7167
▁guest	-10.7169
▁association	-10.7171
▁shares	-10.7178
▁gathered	-10.7181
▁friendly	-10.7181
▁Key	-10.7183
▁LGBT	-10.7183
▁Cook	-10.7184
▁Ministry	-10.7184
▁Dragon	-10.7186
▁IT	-10.719
▁musical	-10.7191
▁Sir	-10.7191
▁fantasy	-10.7193
▁Las	-10.7197
▁Hospital	-10.7202
take	-10.7207
▁garden	-10.7211
▁widespread	-10.7211
▁chicken	-10.7212
ient	-10.7213
89	-10.7214
tter	-10.7216
▁smooth	-10.7219
98	-10.722
▁obtain	-10.7222
▁$6	-10.7228
▁corporations	-10.7228
▁closing	-10.7229
▁mod	-10.723
▁Xbox	-10.7231
▁supports	-10.7233
▁terrorists	-10.7234
▁unlike	-10.7236
▁hardly	-10.7236
▁repeated	-10.7238
▁Division	-10.7238
▁fallen	-10.7241
▁recommended	-10.7241
▁replacement	-10.7242
▁Prince	-10.7246
One	-10.7246
▁independence	-10.725
▁bottle	-10.7255
▁Moon	-10.7257
▁CBS	-10.7257
▁Way	-10.7262
IT	-10.7263
ising	-10.7263
▁Tech	-10.7276
▁stone	-10.7277
ric	-10.7278
▁viewers	-10.7278
▁39	-10.7278
▁normally	-10.7279
▁Justin	-10.7281
▁controversy	-10.7283
▁lift	-10.7285
▁upset	-10.7286
▁trail	-10.7287
▁extensive	-10.7291
▁Bridge	-10.7293
▁expanded	-10.7296
▁2008,	-10.73
▁define	-10.7301
▁doors	-10.7303
▁languages	-10.7305
▁Care	-10.7306
▁sensitive	-10.7307
▁Later	-10.7308
▁interviews	-10.7308
▁ch	-10.7308
▁ships	-10.731
▁Medical	-10.7312
▁Code	-10.7313
cur	-10.7315
▁trigger	-10.7316
from	-10.7317
▁providers	-10.7317
ult	-10.732
▁citizen	-10.7326
▁tag	-10.7332
La	-10.7335
▁celebrate	-10.7338
▁Ren	-10.7343
▁estimate	-10.7346
▁2009,	-10.7347
▁publication	-10.7349
▁Credit	-10.735
▁grid	-10.735
▁hired	-10.7353
42	-10.7354
ix	-10.7355
▁iOS	-10.7357
▁Work	-10.7357
▁Family	-10.7359
made	-10.7361
▁sand	-10.7366
▁Kong	-10.7366
▁liked	-10.7367
▁suggesting	-10.7369
56	-10.7374
▁semi	-10.7381
Ha	-10.7383
▁AND	-10.7383
▁calm	-10.7388
▁dynamic	-10.7389
▁thread	-10.739
AS	-10.7392
▁cyber	-10.7392
▁civilians	-10.7393
▁SA	-10.7396
card	-10.7398
▁Ali	-10.7401
▁MORE	-10.7402
▁Feb	-10.7403
▁recall	-10.7412
▁decent	-10.742
▁throwing	-10.742
▁Ball	-10.7426
▁discovery	-10.7428
▁walls	-10.7431
<	-10.7434
mann	-10.7434
▁Master	-10.7438
▁ranked	-10.7439
▁tweeted	-10.7441
▁%	-10.7443
▁soil	-10.7444
▁Program	-10.7448
▁holiday	-10.7449
read	-10.7449
ku	-10.7458
▁Major	-10.7459
OS	-10.7461
lon	-10.7462
02	-10.7464
▁Dead	-10.7466
▁trained	-10.7471
▁suspended	-10.7472
7%	-10.7472
▁4,	-10.7474
▁Bre	-10.7477
▁presentation	-10.7478
EN	-10.748
▁trick	-10.7482
▁Massachusetts	-10.7493
▁phones	-10.7497
▁parliament	-10.7501
▁collective	-10.7502
▁judgment	-10.7502
▁Cleveland	-10.7502
▁pipeline	-10.7503
▁Fe	-10.7504
TA	-10.7504
í	-10.7506
2)	-10.7508
▁reader	-10.7509
▁Josh	-10.7515
ctor	-10.7515
▁2019	-10.7521
bn	-10.7522
▁ballot	-10.7526
▁Film	-10.7528
▁shoulder	-10.7533
▁7.	-10.7534
▁Marvel	-10.754
55	-10.7546
▁intervention	-10.7547
▁repeat	-10.7547
▁threw	-10.7549
▁spokesperson	-10.7549
▁investigators	-10.7549
▁encounter	-10.7552
▁genre	-10.7554
▁ownership	-10.7559
▁odd	-10.7562
▁entertainment	-10.7568
22	-10.757
▁lights	-10.7571
▁diversity	-10.7572
▁Denver	-10.7577
▁attached	-10.7577
▁joke	-10.7578
▁forest	-10.7583
▁gang	-10.7584
How	-10.7585
▁Card	-10.7588
▁substantial	-10.759
▁deficit	-10.7591
▁Pen	-10.7593
▁Empire	-10.7595
▁comfort	-10.7602
inch	-10.7603
▁suspected	-10.7604
▁Phil	-10.7607
▁keeps	-10.761
▁Sal	-10.7612
▁affairs	-10.7613
bel	-10.7615
▁ESPN	-10.7618
▁Greg	-10.7619
▁Museum	-10.7623
▁Freedom	-10.7624
▁lab	-10.7626
▁finds	-10.7627
▁heading	-10.7627
rin	-10.7629
▁grant	-10.7633
▁1996	-10.7633
▁fault	-10.7634
▁resident	-10.7638
▁Harris	-10.764
row	-10.764
▁guarantee	-10.764
▁captain	-10.7642
▁Yeah	-10.7646
▁bench	-10.7647
ments	-10.7648
▁Mal	-10.7649
▁implemented	-10.7649
▁z	-10.7653
▁Ve	-10.7654
pan	-10.7655
tch	-10.7656
▁st	-10.7657
▁lunch	-10.7661
▁salary	-10.7661
▁Dave	-10.7663
nic	-10.7663
▁Keep	-10.7663
AT	-10.7669
▁predict	-10.7669
▁remarks	-10.767
▁Fair	-10.7671
▁objective	-10.7673
▁Vegas	-10.7673
53	-10.7676
▁Below	-10.7681
▁Sub	-10.7681
▁tie	-10.7683
▁43	-10.7686
▁helpful	-10.7687
▁advocates	-10.7688
▁im	-10.7689
▁Food	-10.7696
zy	-10.7702
▁viewed	-10.7706
▁seemingly	-10.7708
▁44	-10.7711
▁respectively	-10.7713
▁visitors	-10.7714
gg	-10.7714
▁Yo	-10.7715
▁Olympic	-10.7716
ew	-10.772
▁Bu	-10.7722
eng	-10.7725
pt	-10.7729
▁scores	-10.773
▁NATO	-10.7731
▁passage	-10.7731
▁tip	-10.7731
▁spin	-10.7735
▁2017.	-10.7739
▁Six	-10.774
▁pet	-10.7741
66	-10.7743
high	-10.7744
▁lo	-10.7745
▁Em	-10.7746
▁stayed	-10.7748
▁Silver	-10.7749
test	-10.7754
▁luck	-10.7758
▁demonstrated	-10.776
▁brown	-10.7762
▁copies	-10.7765
▁chest	-10.7771
▁innocent	-10.7774
▁Mu	-10.7779
▁covering	-10.7782
▁wood	-10.7784
zer	-10.7786
▁passengers	-10.7789
▁statistics	-10.779
▁universities	-10.7793
▁jury	-10.7794
season	-10.7795
▁naturally	-10.7799
|	-10.7801
▁enormous	-10.7801
uring	-10.7803
ami	-10.7805
▁Liberal	-10.7806
▁CD	-10.7806
▁Has	-10.7807
CC	-10.7808
▁silver	-10.7808
▁Fund	-10.7809
rie	-10.7814
▁GM	-10.7819
▁shell	-10.782
▁lucky	-10.782
▁Intelligence	-10.7821
▁handling	-10.7822
▁equally	-10.7826
gy	-10.7826
▁Indiana	-10.783
▁bars	-10.7833
▁stolen	-10.7833
▁Simon	-10.7838
cap	-10.7842
▁Unlike	-10.7843
▁1997	-10.7843
Mo	-10.7844
▁contributions	-10.7846
▁joining	-10.7849
ons	-10.7852
tel	-10.7853
Co	-10.7855
ux	-10.7856
▁representation	-10.7858
▁efficiency	-10.7865
▁ease	-10.7869
▁stupid	-10.7871
03	-10.7872
▁chat	-10.7874
sha	-10.7874
79	-10.7878
▁personality	-10.788
▁clothes	-10.788
▁roads	-10.7881
▁attacking	-10.7885
▁55	-10.7886
▁absence	-10.7888
▁ca	-10.7889
hard	-10.789
▁pursue	-10.789
lay	-10.7897
▁Set	-10.7897
action	-10.7898
▁Governor	-10.7898
rated	-10.79
▁Baltimore	-10.79
▁samples	-10.79
news	-10.7901
▁humanity	-10.7905
▁MA	-10.7906
cer	-10.7908
▁websites	-10.7909
▁awareness	-10.7911
▁(“	-10.7912
▁yellow	-10.7913
ians	-10.7914
▁Support	-10.7918
▁Speaking	-10.792
▁Howard	-10.7922
▁sum	-10.7925
Me	-10.7926
▁Stadium	-10.7927
▁Kennedy	-10.7937
▁rookie	-10.7937
▁witness	-10.7937
▁Award	-10.7942
lor	-10.7943
illa	-10.7944
▁Mars	-10.7945
52	-10.7946
code	-10.7948
▁41	-10.7951
part	-10.7955
▁Fed	-10.7959
▁investigating	-10.7966
▁depend	-10.7966
▁origin	-10.7969
▁deeper	-10.797
▁grade	-10.7971
▁1999	-10.7975
▁para	-10.7975
▁commonly	-10.7976
5%	-10.7988
▁Pri	-10.7988
▁lowest	-10.7992
▁asks	-10.7993
hal	-10.7993
▁breath	-10.7995
▁Cap	-10.8
▁legs	-10.8005
▁legacy	-10.8005
▁Vice	-10.8005
▁favour	-10.8006
▁transportation	-10.8007
▁Magic	-10.8008
▁missile	-10.8011
58	-10.8011
▁Christians	-10.8012
2%	-10.8012
▁subsequent	-10.8013
▁refer	-10.8013
▁sorry	-10.8014
▁Ontario	-10.8014
▁execution	-10.8014
▁pin	-10.8014
▁Figure	-10.8016
▁colors	-10.8018
ei	-10.8018
▁diverse	-10.8018
▁tone	-10.8022
▁arrive	-10.8022
▁dramatic	-10.8024
ero	-10.8025
▁Leader	-10.8028
ky	-10.8028
▁improvements	-10.8028
▁kit	-10.8029
▁attempting	-10.8029
▁min	-10.8033
-6	-10.8035
▁Warren	-10.8036
▁serves	-10.8036
▁virus	-10.8036
▁(4	-10.8037
page	-10.804
▁ranks	-10.8046
▁funded	-10.8048
▁circle	-10.805
▁movements	-10.8051
▁partnership	-10.8052
eb	-10.8052
▁Liverpool	-10.8053
▁supplies	-10.8053
▁tomorrow	-10.8053
verse	-10.8054
These	-10.8055
76	-10.8056
▁legitimate	-10.8056
Le	-10.8056
cal	-10.8063
▁Bruce	-10.8063
▁moderate	-10.8067
▁conversations	-10.8068
▁tasks	-10.8068
▁depression	-10.8073
▁shopping	-10.8073
▁Sarah	-10.8074
wan	-10.8076
▁principal	-10.8082
▁Ham	-10.8085
▁raw	-10.8088
96	-10.8089
▁monitor	-10.8092
▁stack	-10.8093
tle	-10.8097
▁encouraged	-10.8097
rich	-10.8102
▁Illinois	-10.8102
▁rural	-10.8102
▁coaches	-10.8111
▁locked	-10.8111
▁Dutch	-10.8112
▁Edit	-10.8113
▁spoken	-10.8116
▁lying	-10.8119
▁mi	-10.8123
▁conventional	-10.8124
▁oppose	-10.8124
Al	-10.8124
78	-10.8124
gra	-10.8124
▁inflation	-10.8126
▁god	-10.8126
▁Boy	-10.8127
▁replied	-10.8131
-12	-10.8135
▁profits	-10.8136
▁scope	-10.8139
▁transaction	-10.8141
▁addressed	-10.8147
▁arrival	-10.8151
▁attitude	-10.8153
▁transit	-10.8154
▁Market	-10.8162
▁receiver	-10.8165
▁roles	-10.8166
core	-10.8169
shi	-10.817
▁depends	-10.8177
TM	-10.8178
▁Design	-10.8179
▁pe	-10.818
▁conspiracy	-10.8181
▁racism	-10.8181
▁Sweden	-10.8181
▁rush	-10.8181
▁absolute	-10.8183
including	-10.8183
cast	-10.8192
table	-10.8194
▁voter	-10.8195
rian	-10.8198
▁passion	-10.8198
97	-10.82
av	-10.8204
ple	-10.8205
Ra	-10.8207
69	-10.8212
▁Reddit	-10.822
▁parallel	-10.8223
▁km	-10.8229
▁factory	-10.823
▁ordinary	-10.823
▁rapid	-10.8232
▁Des	-10.8234
▁Utah	-10.8235
cat	-10.8235
press	-10.8239
▁flash	-10.824
▁formation	-10.824
▁Hard	-10.824
▁firing	-10.824
▁Portland	-10.8241
▁perception	-10.8243
ula	-10.8246
▁liquid	-10.8246
▁loop	-10.8246
Well	-10.8248
▁Hamilton	-10.8253
▁championship	-10.8253
▁Metro	-10.8254
nk	-10.8254
▁reviews	-10.8255
▁Mel	-10.8255
▁patch	-10.8259
din	-10.826
▁soccer	-10.8263
▁str	-10.8265
ag	-10.8266
▁Left	-10.8267
▁III	-10.8267
ks	-10.8267
84	-10.8269
ati	-10.8281
▁Tour	-10.8284
▁equality	-10.8285
vent	-10.8286
▁Death	-10.8287
▁shelter	-10.8292
▁healthcare	-10.8292
ele	-10.8298
Fi	-10.8302
▁improving	-10.8303
▁disorder	-10.8304
ich	-10.8307
▁fossil	-10.831
▁versus	-10.831
▁drew	-10.831
▁drove	-10.8311
▁loans	-10.8312
▁Step	-10.8318
▁Capital	-10.8321
MA	-10.8323
▁actors	-10.8323
▁mechanism	-10.8324
▁presidency	-10.833
▁spokeswoman	-10.833
▁mail	-10.8332
PS	-10.8334
▁classified	-10.8335
▁Final	-10.8336
▁handed	-10.8336
▁Associate	-10.8337
▁fighter	-10.8337
▁wages	-10.8339
Pro	-10.8347
▁Alexander	-10.835
▁Bureau	-10.835
html	-10.8351
mus	-10.8352
▁introduction	-10.836
▁log	-10.8361
RC	-10.8362
▁discussions	-10.8362
▁dust	-10.8363
▁neck	-10.8363
▁mining	-10.8365
▁impression	-10.8372
▁Jose	-10.8372
▁sees	-10.8374
▁Order	-10.8374
▁Nu	-10.8377
▁1994	-10.8381
▁settings	-10.8382
▁marks	-10.8383
non	-10.8383
▁climb	-10.8388
▁inner	-10.8389
▁distributed	-10.8389
SS	-10.8389
▁comedy	-10.8389
▁swing	-10.839
GB	-10.839
▁Standard	-10.8391
▁requested	-10.8392
▁1995	-10.8392
▁Shi	-10.8396
▁Sony	-10.8397
▁referendum	-10.8401
▁virtually	-10.8407
▁Steven	-10.8412
▁Store	-10.8421
▁strategies	-10.8421
ups	-10.8424
▁Comey	-10.8428
87	-10.8431
▁Oklahoma	-10.8431
▁Samsung	-10.8431
▁counts	-10.8433
tan	-10.8436
▁lock	-10.8437
68	-10.8438
▁concrete	-10.8441
▁membership	-10.8444
▁forth	-10.8445
▁del	-10.8445
▁formula	-10.845
▁harassment	-10.8451
▁Graham	-10.8452
▁52	-10.8453
▁acknowledged	-10.8454
▁ethnic	-10.8456
▁demo	-10.8456
ama	-10.8458
▁ear	-10.8458
▁cheese	-10.8461
▁steel	-10.8462
▁careful	-10.8464
FC	-10.8464
▁Jean	-10.8466
▁Early	-10.8467
ically	-10.847
▁forecast	-10.8472
▁punishment	-10.8473
▁forcing	-10.8474
▁2020	-10.8479
▁probe	-10.848
▁headquarters	-10.8482
▁ignored	-10.8487
▁temperatures	-10.8489
▁symptoms	-10.849
▁phenomenon	-10.8492
▁acquired	-10.8493
88	-10.8493
AC	-10.8493
▁Model	-10.8495
▁gains	-10.8497
▁Five	-10.8497
▁programme	-10.8502
▁Rather	-10.8503
▁repair	-10.8504
▁privilege	-10.8505
-0	-10.8506
onic	-10.8509
▁consistently	-10.851
▁smell	-10.8512
NA	-10.8513
pon	-10.8513
▁Labor	-10.8515
minute	-10.8518
▁Auto	-10.852
yl	-10.852
▁occupation	-10.8523
▁studied	-10.8523
▁(5	-10.8527
▁reliable	-10.8533
▁Name	-10.8535
▁sequence	-10.8536
▁tracking	-10.8537
▁SC	-10.8542
▁valid	-10.8544
▁whenever	-10.8548
▁Tor	-10.8551
▁beauty	-10.8553
▁psychological	-10.8553
▁protecting	-10.8556
real	-10.8562
▁Galaxy	-10.8564
kar	-10.8565
elect	-10.8568
▁dismissed	-10.8573
ets	-10.8576
▁domain	-10.8578
rt	-10.8582
ria	-10.8589
▁Cam	-10.8592
▁popularity	-10.8593
▁Ser	-10.8594
▁interpretation	-10.8597
▁Wolf	-10.8602
▁opinions	-10.861
▁Bible	-10.861
▁employed	-10.8611
▁invest	-10.8611
▁letting	-10.8614
ual	-10.8619
▁Uber	-10.8619
▁papers	-10.8624
▁Tennessee	-10.8625
▁architecture	-10.8626
ign	-10.8629
▁Class	-10.8629
▁measured	-10.8635
▁dying	-10.8637
▁promises	-10.8637
gram	-10.8637
▁Inter	-10.8637
▁stance	-10.8637
ory	-10.864
43	-10.8643
▁proportion	-10.8643
▁Sound	-10.8644
▁Gi	-10.8645
▁retirement	-10.8647
uri	-10.8651
▁appointed	-10.8651
59	-10.8655
▁survival	-10.8657
▁consent	-10.8657
▁desert	-10.8667
▁stability	-10.8667
▁connections	-10.8675
▁preparing	-10.8677
▁Editor	-10.8678
▁involves	-10.868
▁divided	-10.8681
▁knee	-10.8683
▁patent	-10.8683
▁Sp	-10.8684
▁47	-10.8685
▁comprehensive	-10.8689
▁procedure	-10.869
▁Think	-10.8692
ath	-10.8693
▁abroad	-10.8696
▁mu	-10.8696
▁categories	-10.8698
▁participation	-10.8698
▁transactions	-10.8699
▁clinical	-10.87
▁fate	-10.8701
An	-10.8703
ea	-10.8708
▁Harvard	-10.8709
▁Ram	-10.8709
▁detect	-10.871
▁performing	-10.871
▁Digital	-10.8712
ther	-10.8712
sk	-10.8713
▁blocked	-10.8715
▁criticized	-10.8715
▁Obamacare	-10.8721
▁conservatives	-10.8724
mark	-10.8724
▁household	-10.8725
▁Station	-10.8728
▁approached	-10.8729
▁Gary	-10.8733
▁robot	-10.8734
▁thick	-10.874
▁Nintendo	-10.874
▁trillion	-10.874
▁~	-10.8744
▁monitoring	-10.8744
lie	-10.8745
▁representing	-10.8747
▁Sydney	-10.875
▁Gulf	-10.8751
ET	-10.8754
bound	-10.8754
▁rhetoric	-10.876
▁Jerusalem	-10.8761
▁overseas	-10.8761
oon	-10.8761
▁logo	-10.8762
▁AI	-10.8767
▁Getty	-10.8768
▁46	-10.8768
Ba	-10.8774
range	-10.8774
▁urged	-10.8776
▁judges	-10.8778
▁flood	-10.8781
▁hire	-10.8781
▁abandoned	-10.8782
▁striking	-10.8782
▁loud	-10.8784
▁visiting	-10.8788
▁wider	-10.879
▁Edward	-10.879
▁spiritual	-10.8795
▁universal	-10.8797
▁senator	-10.8797
there	-10.8799
ld	-10.88
▁scientist	-10.8801
▁politically	-10.8803
▁Technology	-10.8803
▁delegates	-10.8807
▁violation	-10.8808
▁saving	-10.8812
fire	-10.8816
load	-10.8818
▁orbit	-10.8818
-20	-10.8819
▁Should	-10.8819
▁Local	-10.882
▁routine	-10.8832
▁platforms	-10.8839
-8	-10.884
lar	-10.8841
.[1]	-10.8843
▁rough	-10.8843
▁Say	-10.8844
▁Chelsea	-10.8847
▁var	-10.886
▁animation	-10.8862
ica	-10.8865
▁introduce	-10.8866
▁blockchain	-10.8866
▁acid	-10.8872
▁sufficient	-10.8873
▁->	-10.8874
▁actively	-10.8876
▁predicted	-10.8878
▁64	-10.8879
▁quote	-10.888
ox	-10.8881
▁Khan	-10.8882
▁beach	-10.8883
▁usage	-10.8883
▁brothers	-10.8884
▁collaboration	-10.8887
▁tall	-10.8889
▁decrease	-10.8891
▁torture	-10.8891
ens	-10.8891
On	-10.8892
▁importantly	-10.8896
▁Instagram	-10.8898
▁labour	-10.8898
▁gathering	-10.8902
AA	-10.8902
000	-10.8906
only	-10.8908
▁kitchen	-10.8909
ration	-10.891
MS	-10.891
▁reward	-10.8912
63	-10.8916
▁involve	-10.8919
▁tips	-10.892
▁Nor	-10.8924
▁veterans	-10.8926
▁newsletter	-10.8927
care	-10.8928
▁Intel	-10.8936
41	-10.8937
▁creates	-10.8938
▁rank	-10.8939
▁Vol	-10.8939
▁adventure	-10.8941
aries	-10.8941
▁targeting	-10.8941
tar	-10.8942
,500	-10.8945
▁Secret	-10.8946
▁intention	-10.8947
▁tail	-10.8949
▁recipe	-10.8952
Ho	-10.8954
▁blast	-10.8957
▁minds	-10.8957
▁deadline	-10.8959
▁twenty	-10.8962
▁Tesla	-10.8962
CH	-10.8962
▁export	-10.8963
▁rocket	-10.8964
▁shadow	-10.8964
bed	-10.8966
▁gr	-10.8966
▁entitled	-10.8973
▁venture	-10.8973
ction	-10.8973
▁Point	-10.8973
▁Everyone	-10.898
▁te	-10.8981
▁po	-10.8981
▁landing	-10.8983
GA	-10.8983
▁Jonathan	-10.8986
▁resolve	-10.8988
▁Scottish	-10.8996
ef	-10.8999
▁Reserve	-10.9
▁proposals	-10.9003
▁Ocean	-10.9005
▁congressional	-10.9005
▁Third	-10.9005
SC	-10.9007
83	-10.9011
▁op	-10.9015
▁testimony	-10.9015
▁Hell	-10.9017
People	-10.9023
▁literature	-10.9026
▁uniform	-10.9026
▁childhood	-10.9027
▁Latin	-10.903
▁Miss	-10.9032
1%	-10.9035
▁consideration	-10.9035
▁capabilities	-10.9037
▁attractive	-10.9038
▁wheel	-10.9038
mes	-10.9039
▁sc	-10.904
▁permit	-10.904
▁focusing	-10.904
▁Win	-10.9041
3%	-10.9043
▁Atlantic	-10.9043
very	-10.9043
▁curve	-10.9043
▁reverse	-10.9044
▁1:	-10.9046
▁IP	-10.9047
▁prosecutors	-10.905
▁civilian	-10.9052
tech	-10.9054
▁struggled	-10.9054
▁2011.	-10.9055
▁Fo	-10.9057
▁documentary	-10.9061
▁satellite	-10.9062
▁demanding	-10.9069
▁anxiety	-10.9069
▁repeal	-10.9071
▁dominant	-10.9073
Un	-10.9075
▁hip	-10.9076
▁Kar	-10.9077
now	-10.9078
▁finger	-10.908
▁hockey	-10.908
▁setup	-10.9082
▁upgrade	-10.9082
ene	-10.9083
▁Gre	-10.9084
▁Sean	-10.9084
73	-10.9084
▁bonus	-10.9086
▁ta	-10.9088
▁brilliant	-10.9091
▁ministry	-10.9091
▁attract	-10.9093
▁playoffs	-10.9093
▁prisoners	-10.9094
▁symbol	-10.9095
▁monthly	-10.9097
▁Summer	-10.9102
▁Ted	-10.9105
▁Place	-10.9106
▁None	-10.911
▁timing	-10.9113
var	-10.9113
▁advertisement	-10.9113
▁propaganda	-10.9115
▁broader	-10.9116
▁maps	-10.9116
TS	-10.9117
▁biological	-10.9124
▁mistakes	-10.9124
▁insisted	-10.9125
▁Morgan	-10.9125
view	-10.9126
▁Total	-10.913
▁Could	-10.9135
▁colour	-10.9139
▁ET	-10.914
▁inspiration	-10.9142
▁Ac	-10.9142
▁speaks	-10.9146
▁Charlie	-10.9146
js	-10.9148
▁embrace	-10.9149
▁defending	-10.9155
▁athletes	-10.9155
▁discussing	-10.9156
▁steal	-10.9162
▁banking	-10.9162
▁Being	-10.9163
▁Remember	-10.9164
qu	-10.9166
▁slide	-10.9168
▁odds	-10.9169
▁Main	-10.917
▁organic	-10.9176
▁errors	-10.9177
▁Murray	-10.9178
▁margin	-10.9182
▁Brexit	-10.9185
▁maintained	-10.919
▁stepped	-10.9191
▁horse	-10.9195
▁plain	-10.92
▁incidents	-10.92
▁titled	-10.9201
▁wealthy	-10.9204
▁ratings	-10.9206
▁fl	-10.9207
▁burning	-10.9208
▁wire	-10.9209
ram	-10.921
▁differently	-10.921
OL	-10.9216
▁adopt	-10.9216
▁Grant	-10.9218
▁Kentucky	-10.9222
▁excuse	-10.9222
▁Oakland	-10.9222
▁nose	-10.9224
cu	-10.9226
▁stored	-10.9232
▁custody	-10.9233
▁eliminate	-10.9236
▁quoted	-10.9241
body	-10.9242
▁Clark	-10.9246
▁Further	-10.9247
▁graduate	-10.9247
▁amid	-10.9252
▁Gun	-10.9253
▁roof	-10.9255
▁bo	-10.9257
▁Mass	-10.9258
▁Moreover	-10.9258
▁cognitive	-10.926
▁contribution	-10.926
▁Netflix	-10.9266
iness	-10.9267
▁$100	-10.9268
ware	-10.9269
▁covers	-10.9271
▁staying	-10.9276
▁questioned	-10.9277
how	-10.9286
▁lists	-10.9288
▁dialogue	-10.9288
▁remarkable	-10.9289
▁restaurants	-10.9292
▁Future	-10.9292
▁Wild	-10.9293
▁experiments	-10.9293
▁Er	-10.93
just	-10.93
br	-10.93
▁der	-10.9303
▁guitar	-10.9305
▁em	-10.9308
▁awarded	-10.9309
▁dispute	-10.931
▁Children	-10.931
▁coaching	-10.9314
▁killer	-10.9315
▁shield	-10.9321
▁assumed	-10.9321
▁Therefore	-10.9322
bra	-10.9325
▁variable	-10.9328
worth	-10.9334
▁flavor	-10.9334
▁engagement	-10.9336
▁reads	-10.9338
▁Sim	-10.9338
▁illness	-10.934
human	-10.934
▁posting	-10.9342
▁Hand	-10.9342
▁okay	-10.9343
▁Sure	-10.9347
▁Egyptian	-10.9348
▁settled	-10.9349
▁muscle	-10.9351
▁Much	-10.9354
▁deny	-10.9356
▁ST	-10.9358
▁Guard	-10.9364
▁museum	-10.9365
▁picking	-10.9369
▁drone	-10.9374
cut	-10.9375
▁Vietnam	-10.9376
▁legislative	-10.9376
ush	-10.9377
▁MLS	-10.9378
▁demonstrate	-10.9378
▁centers	-10.9378
lia	-10.9379
▁flu	-10.938
▁expanding	-10.938
▁Ph	-10.9382
▁Hong	-10.9382
nar	-10.9384
▁instructions	-10.9386
▁Beijing	-10.9388
▁Executive	-10.9388
▁Carl	-10.9389
▁Find	-10.9389
▁tower	-10.9389
▁8.	-10.939
▁10-	-10.9391
ged	-10.9392
▁Roy	-10.9392
72	-10.9392
▁institution	-10.9392
▁Dream	-10.9392
▁seed	-10.9393
▁List	-10.9395
▁NOT	-10.9396
▁11,	-10.9398
▁competing	-10.9399
▁removal	-10.9399
AD	-10.94
▁suspects	-10.94
▁protein	-10.9402
▁hoped	-10.9403
▁wounded	-10.9404
▁unions	-10.9406
▁spots	-10.9407
▁promoting	-10.941
▁Assembly	-10.941
▁deserve	-10.9413
▁riding	-10.9422
▁filing	-10.9422
94	-10.9423
Why	-10.9425
ees	-10.9425
▁pocket	-10.9428
▁Berlin	-10.9429
▁argues	-10.9431
▁educational	-10.9436
hood	-10.9441
▁Economic	-10.9442
▁Pentagon	-10.9444
▁1950	-10.9446
▁joy	-10.9446
▁100%	-10.945
▁ni	-10.9455
▁Tra	-10.9455
▁Ju	-10.9455
they	-10.9458
▁threatening	-10.9461
▁Ban	-10.9469
ME	-10.947
▁birds	-10.947
mor	-10.9474
vert	-10.9475
▁consensus	-10.9477
▁convert	-10.948
▁managing	-10.948
▁Channel	-10.9482
▁streaming	-10.9482
wide	-10.9483
▁dress	-10.9485
▁underlying	-10.9489
▁Libya	-10.9493
▁SP	-10.9495
▁meaningful	-10.9497
mate	-10.9499
▁promising	-10.95
▁invasion	-10.95
▁podcast	-10.95
▁harsh	-10.95
ump	-10.9501
▁resort	-10.9501
▁channels	-10.9502
▁stake	-10.9502
▁fears	-10.9505
▁combine	-10.9505
▁smoking	-10.9505
New	-10.9505
dom	-10.9508
was	-10.9509
▁eligible	-10.9509
▁RE	-10.9509
▁info	-10.9511
▁regret	-10.9511
▁Jeremy	-10.9513
▁gross	-10.9515
▁Run	-10.9519
▁migrants	-10.9521
▁abilities	-10.9522
▁Afghan	-10.9525
▁secondary	-10.9527
▁requirement	-10.9527
▁pledge	-10.9528
ash	-10.9531
▁Maryland	-10.9535
DA	-10.9536
▁affordable	-10.9538
▁distinct	-10.9538
▁compromise	-10.9539
▁breaks	-10.9541
▁Sheriff	-10.9546
▁Band	-10.9546
DS	-10.9549
▁concert	-10.9549
▁wedding	-10.955
▁51	-10.955
▁mood	-10.9552
▁lit	-10.9552
aw	-10.9555
▁mere	-10.9555
▁configuration	-10.956
▁Access	-10.9564
inter	-10.9564
▁Marine	-10.9565
ough	-10.9567
▁Convention	-10.9568
74	-10.9573
lam	-10.9573
▁blend	-10.9579
▁alert	-10.958
▁hopefully	-10.958
party	-10.9581
▁Matthew	-10.9584
cus	-10.9589
▁renewable	-10.9591
▁sudden	-10.9591
▁Palestinians	-10.9595
▁ceremony	-10.9602
▁Aaron	-10.9602
▁Modi	-10.9602
▁openly	-10.9604
▁implications	-10.9604
▁hosted	-10.9616
▁Fi	-10.9617
▁iron	-10.9617
▁hack	-10.962
▁Tea	-10.9621
▁Assad	-10.9622
▁rid	-10.9624
▁1998	-10.9624
▁analyst	-10.9628
▁commander	-10.9628
▁Ruby	-10.9628
▁tonight	-10.9629
▁lifetime	-10.963
▁physically	-10.9634
▁grave	-10.9636
▁Reagan	-10.9637
she	-10.9639
▁surely	-10.9641
▁campaigns	-10.9643
▁bubble	-10.9648
▁summit	-10.9649
▁checks	-10.9651
cker	-10.9652
▁Down	-10.9653
▁grounds	-10.9653
▁difficulty	-10.9656
▁producers	-10.9659
▁alliance	-10.9659
▁Date	-10.9664
dar	-10.9667
▁Buy	-10.9669
▁spectrum	-10.967
▁1992	-10.9671
aka	-10.9676
▁bin	-10.9678
▁settle	-10.9679
▁bowl	-10.9682
▁Thompson	-10.9682
▁2017,	-10.9683
▁segment	-10.9686
order	-10.9688
▁waves	-10.9688
-7	-10.9692
▁Revolution	-10.9693
gin	-10.9693
▁assigned	-10.9693
▁tissue	-10.9694
▁Delhi	-10.9694
pers	-10.9695
▁diplomatic	-10.9695
yo	-10.9696
▁circuit	-10.9698
▁Ch	-10.9698
▁ne	-10.9699
▁tired	-10.9702
▁arguing	-10.9705
▁pointing	-10.9707
▁representatives	-10.971
▁assist	-10.971
▁beating	-10.971
▁BC	-10.9711
▁races	-10.9715
base	-10.9715
▁Phoenix	-10.9716
▁anniversary	-10.9716
▁Festival	-10.9716
▁hook	-10.9717
▁voices	-10.9718
▁birthday	-10.9719
▁Carter	-10.9719
▁everyday	-10.9721
▁Continue	-10.9722
▁MO	-10.9731
91	-10.9732
▁indicates	-10.9732
▁relation	-10.9733
▁clip	-10.9734
▁Type	-10.9734
yan	-10.9736
▁filter	-10.9736
▁servers	-10.9738
▁submitted	-10.9741
▁signature	-10.9741
▁Elizabeth	-10.9741
▁legally	-10.9747
▁$7	-10.9748
▁Independent	-10.975
▁Spring	-10.9755
▁chip	-10.9756
▁convince	-10.9757
▁Fort	-10.9758
▁2:	-10.9759
cul	-10.9759
FA	-10.9763
▁Gordon	-10.9763
▁NO	-10.9764
▁€	-10.9767
▁Sand	-10.9769
▁procedures	-10.9772
BA	-10.9774
▁preparation	-10.9774
chan	-10.9774
▁cooperation	-10.9775
▁appearances	-10.9775
▁meta	-10.9776
▁pride	-10.9777
dale	-10.9783
▁centuries	-10.9786
gun	-10.9789
▁Officer	-10.9798
▁exploit	-10.9799
will	-10.9812
▁refuse	-10.9812
▁Pass	-10.9813
ean	-10.9814
▁smartphone	-10.9817
via	-10.9818
▁ecosystem	-10.9821
▁sentiment	-10.9821
ock	-10.9825
▁Box	-10.9828
▁hyper	-10.9828
▁highlights	-10.9829
▁sentenced	-10.9832
▁suspension	-10.9832
▁Online	-10.9834
With	-10.9834
▁outlets	-10.9834
▁Rich	-10.9835
▁speaker	-10.9835
▁registration	-10.9835
93	-10.9836
▁communicate	-10.9838
▁alter	-10.9838
▁Until	-10.9838
▁emphasis	-10.9841
▁sacrifice	-10.9841
▁amendment	-10.9841
▁breast	-10.9844
▁examine	-10.9845
▁charity	-10.9845
▁falls	-10.9847
rum	-10.9849
▁Trust	-10.9852
▁Andy	-10.9854
▁damaged	-10.9855
▁chamber	-10.9856
▁shoes	-10.9858
str	-10.9859
▁Additionally	-10.9861
▁sheet	-10.9864
▁adviser	-10.9867
▁tear	-10.9867
▁ro	-10.9868
▁deadly	-10.9871
ture	-10.9874
▁responses	-10.989
600	-10.989
▁engineer	-10.9892
▁Tower	-10.9893
bert	-10.9893
▁accessible	-10.9894
▁chronic	-10.9897
CO	-10.9897
DC	-10.9897
een	-10.99
▁followers	-10.99
▁substance	-10.9901
▁interact	-10.9901
▁Ash	-10.9903
http	-10.9905
▁Op	-10.9912
lt	-10.9915
▁cur	-10.9915
▁bullet	-10.9916
▁trailer	-10.9918
▁studying	-10.9921
most	-10.9922
▁module	-10.9923
▁playoff	-10.9927
▁contacted	-10.9927
▁greatly	-10.9928
▁2007,	-10.9928
▁citing	-10.9929
text	-10.9929
▁Others	-10.9935
▁aged	-10.9939
lit	-10.994
▁weekly	-10.994
▁reject	-10.9942
▁Climate	-10.9942
71	-10.995
▁Mountain	-10.9951
▁boot	-10.9951
▁Captain	-10.9955
rr	-10.9957
▁windows	-10.9958
▁Table	-10.9958
▁badly	-10.996
▁Missouri	-10.9962
▁Alaska	-10.9962
ole	-10.9968
92	-10.9971
▁reveals	-10.9972
▁functional	-10.9973
▁grip	-10.9975
▁interaction	-10.9975
▁belt	-10.9975
▁savings	-10.998
gh	-10.998
▁lineup	-10.9982
▁submit	-10.9985
▁Bal	-10.9986
▁3-	-10.9987
bble	-10.999
▁precisely	-10.9992
▁fleet	-10.9993
▁counsel	-10.9994
▁racing	-10.9997
▁clothing	-11.0007
▁1993	-11.001
▁Char	-11.0013
▁Town	-11.0014
tus	-11.0017
imp	-11.0018
▁therapy	-11.0018
PM	-11.0019
▁tens	-11.0019
-9	-11.002
▁explosion	-11.0022
bs	-11.0024
▁10,000	-11.0024
▁advocate	-11.0028
▁recover	-11.0031
▁Tokyo	-11.0033
▁cluster	-11.0033
▁Orleans	-11.0033
▁des	-11.0033
▁interior	-11.0033
UN	-11.0035
pen	-11.004
▁offices	-11.0044
▁guidelines	-11.0045
▁cabinet	-11.0057
▁glad	-11.0063
avi	-11.0064
▁motivation	-11.0068
▁inquiry	-11.0068
ston	-11.0069
▁Subscribe	-11.0069
▁bulk	-11.0069
▁bathroom	-11.0069
▁disagree	-11.007
▁Batman	-11.0071
▁gene	-11.0072
▁frequency	-11.0076
ving	-11.0077
▁Min	-11.0078
81	-11.008
▁subscribe	-11.008
▁1.5	-11.0081
▁rational	-11.0085
ular	-11.0087
▁investigations	-11.0087
master	-11.0089
▁Francis	-11.0091
▁tactics	-11.0095
▁overcome	-11.0097
▁partly	-11.0097
ena	-11.0098
▁Things	-11.0099
▁_	-11.01
▁answered	-11.0104
▁laptop	-11.0104
▁Organization	-11.0105
▁donations	-11.0105
▁dating	-11.011
▁march	-11.011
▁provision	-11.0113
▁53	-11.0115
▁Bat	-11.0116
▁demon	-11.0117
▁sixth	-11.0123
▁perceived	-11.0124
▁prompted	-11.0126
▁militants	-11.0127
▁borders	-11.0133
▁transform	-11.0134
▁pit	-11.0137
▁Affairs	-11.014
▁indication	-11.014
▁Brooklyn	-11.0143
dic	-11.0146
▁Through	-11.0147
▁hospitals	-11.0152
▁leak	-11.0152
▁utility	-11.0152
▁favourite	-11.0154
oh	-11.016
▁topics	-11.0163
▁9.	-11.0164
▁engineers	-11.0164
▁Robinson	-11.0165
▁Mer	-11.0165
▁Antonio	-11.0166
watch	-11.0168
pl	-11.017
▁Had	-11.0173
ening	-11.0174
▁Alan	-11.0176
▁Management	-11.0176
▁whereas	-11.0183
▁cook	-11.0183
▁solo	-11.0184
▁retain	-11.0185
▁ski	-11.0193
▁2.0	-11.0196
▁volunteer	-11.0198
▁Core	-11.0201
▁7,	-11.0204
ali	-11.021
▁quest	-11.0211
tom	-11.0211
▁compensation	-11.0213
▁Russell	-11.0213
▁rebels	-11.0213
▁graphics	-11.0213
▁1991	-11.0214
▁addresses	-11.0217
▁organisation	-11.0218
▁gather	-11.0218
▁Ty	-11.022
▁Studies	-11.0225
▁Start	-11.0227
▁bias	-11.0228
path	-11.0228
▁backing	-11.0233
RI	-11.0235
▁wanting	-11.0237
▁disappointed	-11.024
▁Mag	-11.0241
ore	-11.0243
▁defeated	-11.0248
▁emerging	-11.0249
away	-11.0252
Mi	-11.0252
cle	-11.0253
▁isolated	-11.0254
face	-11.0258
▁mandate	-11.0258
▁Fer	-11.026
▁preferred	-11.0263
/2	-11.0266
▁ME	-11.0267
1)	-11.0271
▁tune	-11.0272
band	-11.0274
62	-11.0281
og	-11.0283
EE	-11.0284
▁Player	-11.0286
5)	-11.029
▁occurs	-11.0295
▁Nevada	-11.0298
▁iPad	-11.0298
▁shame	-11.0298
/1	-11.0299
▁pension	-11.0299
school	-11.0302
RP	-11.0304
▁jumped	-11.0307
▁designer	-11.0308
▁desk	-11.0308
▁Mas	-11.0309
▁eggs	-11.031
▁memories	-11.031
▁keyboard	-11.0314
▁Wales	-11.0316
plo	-11.0316
sion	-11.0316
▁Doctor	-11.032
▁telephone	-11.0322
▁Perry	-11.0325
▁lessons	-11.0326
owned	-11.0328
▁momentum	-11.0329
what	-11.0336
tain	-11.0336
▁reforms	-11.0336
▁Harper	-11.0337
▁Would	-11.0338
▁Wright	-11.0341
▁hunt	-11.0348
▁void	-11.0348
▁Ki	-11.0352
person	-11.0355
▁Download	-11.0357
▁rooms	-11.0363
▁tweets	-11.0364
▁explaining	-11.0365
tes	-11.0367
▁maintaining	-11.0369
▁6,	-11.037
▁Montreal	-11.0372
▁Building	-11.0372
▁$8	-11.0376
source	-11.038
▁installation	-11.0381
▁prosecutor	-11.0381
▁HD	-11.0381
▁cream	-11.0382
++	-11.0384
▁industries	-11.0384
▁Rome	-11.0384
▁gut	-11.0384
▁shipping	-11.0385
61	-11.0392
▁demanded	-11.0393
▁Alliance	-11.0396
▁Taliban	-11.0396
▁legend	-11.0397
power	-11.0399
ants	-11.0401
matic	-11.0402
ase	-11.0406
▁fed	-11.0409
▁peaceful	-11.0411
82	-11.0412
▁singer	-11.0412
och	-11.0419
▁executives	-11.042
▁minimal	-11.0422
3)	-11.0428
▁boom	-11.043
▁describing	-11.0433
bal	-11.0433
MO	-11.0437
▁inches	-11.044
▁girlfriend	-11.044
size	-11.0441
▁PR	-11.0448
▁su	-11.0451
bri	-11.0456
▁maintenance	-11.0458
▁contemporary	-11.0458
▁brutal	-11.0458
▁Cur	-11.0461
▁Giants	-11.0463
▁recalled	-11.0467
▁Sar	-11.0468
▁Nothing	-11.047
▁dramatically	-11.0471
▁pulling	-11.0474
▁McC	-11.0475
▁Com	-11.0478
▁urge	-11.0479
▁populations	-11.0485
rus	-11.0485
▁Chairman	-11.0486
▁Son	-11.0489
FF	-11.049
▁Val	-11.0493
▁junior	-11.0495
▁artificial	-11.0497
▁Abu	-11.0501
▁emerge	-11.0502
▁alien	-11.0502
▁chocolate	-11.0508
▁opposing	-11.0508
▁rolling	-11.0515
▁prosecution	-11.052
▁Singapore	-11.052
▁desktop	-11.0524
▁regulatory	-11.0526
▁sexually	-11.0527
▁Never	-11.0528
▁Area	-11.0528
----------------	-11.053
▁loose	-11.0534
sson	-11.0536
▁shocked	-11.054
▁pleased	-11.0541
▁trends	-11.0541
nce	-11.0543
▁lesson	-11.0545
▁inequality	-11.0545
▁essay	-11.0545
hen	-11.0547
▁Link	-11.0547
▁EPA	-11.0549
▁carries	-11.0549
▁react	-11.0552
▁recommendations	-11.0552
▁=>	-11.0556
night	-11.0556
▁prospects	-11.0556
▁DE	-11.0559
link	-11.056
left	-11.0563
▁sh	-11.0563
▁modest	-11.0563
▁justify	-11.0575
▁Cu	-11.0575
▁emotions	-11.0576
Reuters	-11.0576
▁cake	-11.0576
▁dropping	-11.0579
▁departure	-11.0583
yer	-11.0584
▁extract	-11.059
▁Brad	-11.0594
▁talented	-11.0594
▁va	-11.0595
▁frustration	-11.0595
▁JavaScript	-11.0596
TC	-11.0596
pic	-11.0599
▁instances	-11.0601
▁requir	-11.0602
▁ridiculous	-11.0602
vers	-11.0603
▁Mario	-11.0604
“	-11.0604
▁bold	-11.0605
▁Mail	-11.0605
▁FA	-11.0608
▁Arsenal	-11.0608
▁Maria	-11.0608
▁lane	-11.0609
▁unprecedented	-11.0611
▁Adams	-11.0612
▁cheaper	-11.0612
▁Cooper	-11.0613
▁creatures	-11.0614
white	-11.0615
any	-11.0615
tru	-11.0617
▁mice	-11.0619
▁bone	-11.0623
une	-11.0624
▁wise	-11.0624
▁highway	-11.0625
▁correctly	-11.0625
▁Wal	-11.0631
▁shooter	-11.0633
EL	-11.0634
▁Iron	-11.0636
▁span	-11.0637
▁extraordinary	-11.0637
▁22,	-11.0638
▁violations	-11.064
▁meal	-11.0641
▁heroes	-11.0641
0.0	-11.0644
▁9/11	-11.0647
▁highlight	-11.0653
▁bread	-11.0654
▁mono	-11.0654
▁stages	-11.0657
▁frequent	-11.0657
ulation	-11.0658
IL	-11.0659
▁Stewart	-11.0659
▁scratch	-11.0659
▁Snowden	-11.0659
▁Cons	-11.066
500	-11.066
▁ingredients	-11.066
dan	-11.0661
RO	-11.0662
Not	-11.0662
▁backup	-11.0664
▁notable	-11.067
gov	-11.0671
▁designs	-11.0672
▁editorial	-11.0672
ency	-11.0672
▁theories	-11.0673
▁Orlando	-11.0675
▁dates	-11.0675
▁translation	-11.0684
▁speakers	-11.0684
▁Section	-11.0685
cc	-11.0685
▁slot	-11.0691
▁Number	-11.0692
sized	-11.0696
▁generations	-11.07
▁Tax	-11.0701
▁politician	-11.0702
▁Roger	-11.0703
▁analysts	-11.0706
▁($	-11.0707
tr	-11.0709
▁Pittsburgh	-11.0709
▁Oscar	-11.071
▁Protection	-11.071
▁Ukrainian	-11.0711
▁Nazi	-11.0712
St	-11.0713
▁wars	-11.0714
nan	-11.0715
OC	-11.0716
▁Pick	-11.0717
▁surrounded	-11.0718
▁pm	-11.0719
eau	-11.0719
mat	-11.072
ters	-11.0722
under	-11.0724
▁unexpected	-11.0725
▁Everything	-11.0725
▁reserved	-11.0727
▁asset	-11.0727
▁spec	-11.0729
gle	-11.073
▁lake	-11.0731
▁seized	-11.0733
▁encouraging	-11.0735
▁static	-11.0737
oid	-11.0739
▁opt	-11.0743
phone	-11.0746
▁patrol	-11.0748
rry	-11.0748
week	-11.0748
▁Christopher	-11.0751
▁neighbors	-11.0752
bid	-11.0754
▁twin	-11.0754
▁tons	-11.0755
▁overwhelming	-11.0755
uf	-11.076
200	-11.0763
▁Overall	-11.0763
.[3]	-11.0763
bot	-11.0764
▁sustainable	-11.0765
ope	-11.0765
ert	-11.0766
▁lifestyle	-11.0769
▁soldier	-11.0769
▁bird	-11.0771
election	-11.0772
nal	-11.0778
▁cry	-11.0778
ima	-11.078
▁creature	-11.078
▁nervous	-11.0786
▁Copyright	-11.0786
▁Camp	-11.0791
ae	-11.0794
has	-11.0795
▁Rangers	-11.0797
▁RT	-11.0797
▁angle	-11.0798
▁grass	-11.0799
▁Ottawa	-11.0799
ral	-11.0801
▁NY	-11.0802
▁Photos	-11.0803
▁briefly	-11.0808
▁sessions	-11.0808
▁Den	-11.0813
▁Dog	-11.0815
▁Pu	-11.0816
ben	-11.0817
▁AS	-11.0817
▁expense	-11.0819
▁icon	-11.082
▁acceptable	-11.082
vel	-11.0825
▁Heart	-11.0832
▁drag	-11.0833
▁closest	-11.0835
▁Looking	-11.0836
ending	-11.0836
▁researcher	-11.0837
▁choosing	-11.0838
▁speculation	-11.0838
▁egg	-11.0838
▁imposed	-11.0838
▁Flash	-11.084
▁Kurdish	-11.0841
Go	-11.0841
▁manufacturers	-11.0846
▁dual	-11.0849
▁Ann	-11.085
▁corn	-11.085
▁Library	-11.085
▁pollution	-11.085
ros	-11.0852
▁shirt	-11.0853
▁Duke	-11.0853
▁boxes	-11.0858
▁com	-11.0861
▁stating	-11.0864
word	-11.0864
▁Hot	-11.0866
sign	-11.0871
07	-11.0871
▁trap	-11.0873
▁picks	-11.0875
▁Corp	-11.0876
▁identical	-11.0876
▁contrary	-11.0877
▁ranking	-11.088
▁CPU	-11.0885
▁crossing	-11.0891
▁rounds	-11.0892
▁employers	-11.0896
▁27,	-11.0896
oy	-11.0898
▁tar	-11.09
▁acquisition	-11.0902
▁curious	-11.0903
▁defender	-11.0905
▁hint	-11.0906
▁Baker	-11.0906
▁Poland	-11.0906
▁Wil	-11.0909
▁superior	-11.0914
▁16,	-11.0915
▁fe	-11.0915
▁Garden	-11.0916
▁anonymous	-11.0918
▁Within	-11.092
value	-11.0925
▁occasionally	-11.0926
▁Furthermore	-11.0929
-11	-11.0929
▁consciousness	-11.0929
good	-11.093
▁Luke	-11.0931
▁fence	-11.0931
▁spell	-11.0931
▁Euro	-11.0933
▁awful	-11.0933
▁concepts	-11.0936
▁differ	-11.0937
Some	-11.0941
▁engaging	-11.0941
▁Louisiana	-11.0941
ban	-11.0941
▁recession	-11.0943
▁toxic	-11.0943
▁si	-11.0945
▁survived	-11.0949
▁leaked	-11.095
group	-11.0953
iya	-11.0953
▁Watson	-11.0954
▁burst	-11.0955
▁guaranteed	-11.0955
▁capitalism	-11.0962
▁traveling	-11.0963
▁prop	-11.0964
income	-11.0966
shot	-11.0968
▁roots	-11.097
▁references	-11.0973
▁occasion	-11.0973
roll	-11.0976
▁detention	-11.098
▁robust	-11.098
▁goods	-11.0982
NS	-11.0985
▁ju	-11.0987
▁attending	-11.099
▁54	-11.0992
▁Tar	-11.0993
▁Corporation	-11.0993
▁entrance	-11.0993
▁yeah	-11.0994
▁homeless	-11.0995
▁Pay	-11.0999
▁guests	-11.1
▁lu	-11.1002
▁Treasury	-11.1007
▁asylum	-11.1007
▁scan	-11.1009
▁arts	-11.1014
▁bands	-11.1014
Now	-11.1016
▁Dean	-11.1017
/10	-11.102
▁corrupt	-11.1022
▁associate	-11.1028
▁AD	-11.1029
▁Come	-11.1033
▁strict	-11.1034
▁USB	-11.1036
▁5-	-11.1036
▁Sta	-11.1036
▁refugee	-11.1039
▁Hunter	-11.1045
▁managers	-11.1046
ira	-11.1048
▁tremendous	-11.1051
self	-11.1058
▁electoral	-11.1059
▁displayed	-11.1062
media	-11.1065
▁trials	-11.1069
▁desperate	-11.1075
▁sorts	-11.1078
▁Marco	-11.1079
▁noting	-11.1083
▁Bel	-11.1083
▁Manhattan	-11.1086
▁executed	-11.1086
▁radiation	-11.1087
▁packed	-11.1088
▁keys	-11.1091
▁Forest	-11.1096
▁graph	-11.1097
▁preserve	-11.1099
▁Round	-11.11
▁0.1	-11.1102
ique	-11.1107
aki	-11.1107
▁sits	-11.111
▁leap	-11.1113
file	-11.1114
▁GDP	-11.1114
fish	-11.1115
.00	-11.1116
▁£1	-11.1118
▁drives	-11.1123
▁composition	-11.1125
vor	-11.1126
▁restore	-11.1126
▁aims	-11.1126
▁approaches	-11.1131
▁volunteers	-11.1131
▁Islamist	-11.1131
▁Ber	-11.1133
▁knife	-11.1139
▁ideology	-11.1139
▁hanging	-11.1139
▁prototype	-11.1139
▁13,	-11.114
▁investments	-11.114
▁civilization	-11.1141
▁shake	-11.1146
▁Smart	-11.1146
EC	-11.1147
▁bail	-11.1147
▁deployed	-11.1152
▁8,	-11.116
▁spaces	-11.1163
▁stats	-11.1164
hit	-11.1164
Bo	-11.1164
▁cop	-11.1166
▁forum	-11.1167
▁14,	-11.1169
▁Pope	-11.1171
▁divide	-11.1171
▁Coach	-11.1172
▁twist	-11.1172
▁2010.	-11.1172
▁Penn	-11.1172
▁Ag	-11.1173
▁kicked	-11.1176
elle	-11.1176
▁invested	-11.1178
▁missions	-11.1178
▁nowhere	-11.1179
▁Edition	-11.1183
▁searching	-11.1184
ans	-11.1186
screen	-11.1188
▁Marc	-11.119
▁Small	-11.1193
▁plug	-11.1194
▁24,	-11.1195
▁headline	-11.1195
▁premium	-11.1196
ax	-11.1201
▁photographer	-11.1202
founder	-11.1205
▁technological	-11.1205
▁28,	-11.1206
▁Holy	-11.121
▁disclosure	-11.1211
ora	-11.1212
▁provider	-11.1213
▁120	-11.1215
▁Vo	-11.1216
▁15,	-11.1218
▁Fla	-11.1218
▁mysterious	-11.1219
▁pleasure	-11.1219
▁Craig	-11.1219
▁1989	-11.122
izer	-11.123
▁wound	-11.123
fu	-11.123
▁tri	-11.1235
▁Pra	-11.1235
▁2006,	-11.1236
▁dependent	-11.1237
▁fiber	-11.1237
itz	-11.1243
Yes	-11.1244
▁pregnant	-11.1245
space	-11.1252
▁pa	-11.1256
▁(6	-11.1258
▁promotion	-11.1258
▁Financial	-11.1259
▁raid	-11.1261
▁Unit	-11.1261
▁math	-11.1264
▁buried	-11.1272
▁Mount	-11.1273
▁genuine	-11.1275
▁concerning	-11.1276
▁underground	-11.1276
▁signals	-11.1279
▁productive	-11.128
▁publishing	-11.1281
profit	-11.1281
ori	-11.1282
pur	-11.1284
▁statue	-11.1286
▁bombing	-11.129
▁passenger	-11.1292
▁witnesses	-11.1293
1,	-11.1295
ON	-11.1298
▁landed	-11.13
▁routes	-11.1305
Just	-11.1311
▁courtesy	-11.1313
▁Mother	-11.1316
ister	-11.1316
▁silent	-11.1316
▁wore	-11.1319
▁disabled	-11.1319
€	-11.132
▁logical	-11.1321
▁2)	-11.1323
lib	-11.1323
▁wondering	-11.1326
▁pepper	-11.1327
▁tab	-11.1328
▁mad	-11.1335
▁declare	-11.1336
start	-11.1337
▁diseases	-11.1337
▁Tro	-11.1338
▁modified	-11.1341
▁subtle	-11.1342
▁</	-11.1345
▁id	-11.1346
ern	-11.1347
▁19,	-11.135
▁impose	-11.135
▁hiring	-11.1354
▁considerable	-11.1354
ese	-11.136
ington	-11.1361
▁explicitly	-11.1361
▁sake	-11.1363
▁inform	-11.1363
▁knock	-11.1363
▁Fu	-11.1364
▁Stanley	-11.1368
▁dig	-11.1368
▁Lincoln	-11.1369
▁Hamas	-11.137
▁defended	-11.1371
▁Drug	-11.1372
▁Shin	-11.1373
▁examined	-11.1374
▁hunting	-11.1379
trans	-11.138
▁den	-11.1382
▁”	-11.1382
▁Bull	-11.1383
▁myth	-11.1384
▁quit	-11.1384
▁laser	-11.1386
▁praise	-11.1391
sey	-11.1392
▁peer	-11.1394
▁Authority	-11.1396
▁Side	-11.1399
sive	-11.1399
▁variables	-11.14
▁Drive	-11.1401
▁occasional	-11.1402
▁flights	-11.1403
tte	-11.1404
▁mystery	-11.1408
▁removing	-11.1409
bank	-11.1409
vol	-11.141
Don	-11.1411
▁Cold	-11.1413
▁refers	-11.1415
▁loaded	-11.1421
▁Hampshire	-11.1422
▁integrated	-11.1423
▁YOU	-11.1424
▁enabled	-11.1424
▁Hy	-11.1426
pri	-11.1426
▁Manager	-11.1426
▁Python	-11.1427
▁Hunt	-11.143
▁undermine	-11.1434
▁dive	-11.1434
open	-11.1435
▁Capitol	-11.1435
▁Collins	-11.1436
▁Jerry	-11.1436
▁Winter	-11.144
▁gameplay	-11.1445
▁lets	-11.1449
▁verify	-11.1454
▁Front	-11.1454
▁vocal	-11.1454
▁expenses	-11.1455
▁Crime	-11.1458
hl	-11.1459
▁br	-11.1462
▁discipline	-11.1466
▁sauce	-11.1467
▁invite	-11.1467
▁Sh	-11.147
citation	-11.1473
▁blocking	-11.1474
0)	-11.1475
▁confusion	-11.1477
▁Modern	-11.1481
▁ages	-11.1482
IM	-11.1482
.[2]	-11.1483
▁interviewed	-11.1485
▁Very	-11.1488
ddle	-11.1489
▁Victoria	-11.1489
▁existed	-11.149
▁McConnell	-11.149
▁1)	-11.1491
▁HIV	-11.1491
▁Dem	-11.1494
▁5,	-11.1494
▁challenged	-11.1495
▁exclusively	-11.1495
▁Dun	-11.1496
▁integration	-11.1498
ering	-11.15
place	-11.1501
▁pose	-11.1501
▁ambassador	-11.1504
▁donors	-11.1505
▁lands	-11.1506
about	-11.1506
mun	-11.1509
▁Along	-11.1512
ites	-11.1514
▁Berkeley	-11.1518
▁guidance	-11.1518
ement	-11.1518
▁Election	-11.1519
▁jet	-11.152
force	-11.1521
▁rap	-11.1524
▁00	-11.1525
▁spill	-11.1526
▁Level	-11.1531
ida	-11.1532
▁crop	-11.1533
▁simultaneously	-11.1534
▁confused	-11.1537
fo	-11.1537
▁True	-11.154
cept	-11.1542
▁dominated	-11.1544
▁conviction	-11.1544
▁releasing	-11.1545
▁26,	-11.1547
▁Hotel	-11.1548
▁burned	-11.155
▁acknowledge	-11.1552
▁21,	-11.1553
▁instant	-11.1554
▁taxpayers	-11.1557
▁Flynn	-11.1559
▁releases	-11.1559
▁Campbell	-11.1559
frame	-11.1563
▁assembly	-11.1564
fall	-11.1564
▁bite	-11.1565
pass	-11.1568
▁Ger	-11.1568
IA	-11.1572
!!	-11.1573
▁criteria	-11.1573
▁Want	-11.1575
▁100,000	-11.1577
▁vaccine	-11.1578
▁coup	-11.1586
ied	-11.1587
vy	-11.1589
▁orange	-11.1589
▁Hart	-11.1594
▁yield	-11.1595
▁CS	-11.1595
▁motivated	-11.1597
00,000	-11.1598
▁brands	-11.1599
▁Commissioner	-11.16
▁characteristics	-11.1601
▁monster	-11.1601
▁qualified	-11.1601
▁demographic	-11.1601
▁rotation	-11.1603
▁sustained	-11.1603
step	-11.1603
TE	-11.1604
million	-11.1604
▁billions	-11.1605
▁Jun	-11.1609
▁Kickstarter	-11.1615
▁calendar	-11.1615
▁nationwide	-11.1616
▁steam	-11.1617
▁Print	-11.1618
▁flip	-11.1621
▁struggles	-11.1622
▁solely	-11.1625
▁outdoor	-11.1625
NC	-11.1626
▁stops	-11.1629
▁bacteria	-11.1634
▁surprisingly	-11.1634
script	-11.1635
coming	-11.1635
▁memo	-11.1638
EP	-11.1638
▁disc	-11.1639
▁Environmental	-11.1639
Po	-11.1639
▁20-	-11.1641
Trump	-11.1642
▁Net	-11.1642
▁slip	-11.1643
▁inevitable	-11.1643
▁Medicare	-11.1643
▁Deep	-11.1644
▁figured	-11.1644
▁23,	-11.1644
▁journalism	-11.1645
▁Knight	-11.1646
▁und	-11.1646
▁printed	-11.1653
▁je	-11.1654
▁worship	-11.1657
▁integrity	-11.1657
▁MPs	-11.1657
▁9,	-11.1658
▁Singh	-11.1659
ches	-11.1662
▁password	-11.1665
▁reserve	-11.167
▁57	-11.167
▁transparency	-11.1671
▁transmission	-11.1671
▁Father	-11.1671
▁destination	-11.1672
▁protocol	-11.1672
▁Speaker	-11.1674
▁agreements	-11.1676
▁earning	-11.1679
▁teammates	-11.1685
▁steady	-11.1685
▁10%	-11.1686
▁Rand	-11.1686
▁Jimmy	-11.1686
▁Staff	-11.1687
▁persons	-11.1688
MB	-11.1692
▁Pakistani	-11.1695
▁NA	-11.1696
▁outcomes	-11.1704
▁adjust	-11.1709
▁sections	-11.171
▁guards	-11.1712
▁Netherlands	-11.1713
▁mile	-11.1713
▁bump	-11.1714
▁sing	-11.1716
▁accusations	-11.1722
▁households	-11.1723
▁Stein	-11.1724
▁longtime	-11.1724
mission	-11.1725
▁subsequently	-11.1728
▁algorithm	-11.173
▁Cho	-11.173
▁mortgage	-11.173
▁experimental	-11.1731
▁produces	-11.1732
▁supplement	-11.1732
▁physics	-11.1733
▁conflicts	-11.1738
▁scared	-11.1742
pack	-11.1743
▁holes	-11.1743
▁wireless	-11.1743
▁exhibit	-11.1745
qua	-11.1747
▁publish	-11.1748
esh	-11.1751
▁puzzle	-11.1755
▁uncertainty	-11.1756
▁mar	-11.1757
erson	-11.1761
▁Reid	-11.1763
▁revolutionary	-11.1764
▁Entertainment	-11.1769
▁complained	-11.1772
▁concentration	-11.1773
bat	-11.1773
▁infection	-11.1774
Ex	-11.1778
▁painful	-11.178
▁beta	-11.178
ame	-11.1782
▁fluid	-11.1785
Di	-11.1787
▁MI	-11.1789
▁balls	-11.179
▁accomplish	-11.1791
▁influenced	-11.1792
▁arch	-11.1793
▁panic	-11.1793
lee	-11.1793
ace	-11.1795
▁Je	-11.1797
▁1000	-11.1797
▁Nelson	-11.1798
▁Based	-11.1798
rest	-11.1799
▁teeth	-11.1802
▁enhance	-11.1803
ifying	-11.1805
▁expecting	-11.1805
▁habit	-11.1809
▁consecutive	-11.1812
LY	-11.1816
▁commissioner	-11.1816
▁detained	-11.1817
▁Gro	-11.1817
▁neuro	-11.1821
▁CB	-11.1822
die	-11.1822
ison	-11.1826
▁terminal	-11.1826
▁applies	-11.1827
▁alarm	-11.1827
▁Between	-11.183
▁Hindu	-11.183
▁golf	-11.1831
▁spark	-11.1835
▁Cloud	-11.1837
▁overnight	-11.1838
▁babies	-11.184
ye	-11.1841
▁conversion	-11.1841
▁Yemen	-11.1844
tur	-11.1845
▁ought	-11.1846
▁delayed	-11.1847
map	-11.1847
▁(1)	-11.1848
▁dreams	-11.1852
▁SEC	-11.1853
▁athletic	-11.1853
▁17,	-11.1853
▁reflected	-11.1867
▁Jane	-11.1867
▁genes	-11.187
▁ethics	-11.1871
ire	-11.1872
▁UC	-11.1876
▁50%	-11.1877
▁Author	-11.1881
bil	-11.1882
ched	-11.1882
▁DVD	-11.1883
▁chaos	-11.1884
century	-11.1884
▁forgotten	-11.1885
▁nonprofit	-11.1885
▁29,	-11.1889
▁drill	-11.1889
▁Guy	-11.189
▁coin	-11.1894
▁Sin	-11.1896
▁restricted	-11.1897
▁Mrs	-11.1898
▁Lin	-11.1898
▁Airport	-11.1899
▁constitution	-11.19
▁Ye	-11.1901
▁Beyond	-11.1902
tag	-11.1903
▁Kyle	-11.1903
▁deemed	-11.1903
▁UI	-11.1904
▁Mitt	-11.1904
▁ensur	-11.1905
▁Warner	-11.1906
▁Walter	-11.1907
far	-11.191
▁Swedish	-11.1912
▁lens	-11.1913
▁epic	-11.1916
ale	-11.1917
friendly	-11.1918
hn	-11.192
▁Arena	-11.1921
Let	-11.1926
aj	-11.1927
▁transferred	-11.1928
▁Larry	-11.1928
▁instrument	-11.1931
▁Ice	-11.1932
wall	-11.1935
SU	-11.1936
▁enforce	-11.1937
▁blamed	-11.1938
▁Philip	-11.1939
▁56	-11.1939
▁85	-11.194
ates	-11.1946
▁offseason	-11.1948
▁Common	-11.1953
▁closure	-11.1955
▁suspicion	-11.1955
▁rolled	-11.1956
▁traded	-11.1957
▁fights	-11.1958
eur	-11.196
▁hop	-11.1964
ii	-11.1965
▁districts	-11.1968
▁hub	-11.1968
.[4]	-11.1969
▁possibilities	-11.197
▁coordinator	-11.197
▁Congressional	-11.1971
▁adoption	-11.1973
had	-11.1974
▁Native	-11.1975
burn	-11.198
author	-11.1983
▁safely	-11.1983
winning	-11.1985
▁engines	-11.1985
gro	-11.1987
▁Base	-11.1988
▁unfair	-11.199
▁Mode	-11.1995
▁handled	-11.1996
▁mouse	-11.2
▁resist	-11.2
▁deployment	-11.2
▁nano	-11.2002
ography	-11.2004
▁adapt	-11.2005
▁senators	-11.2006
▁wallet	-11.2011
PL	-11.2011
pper	-11.2012
maker	-11.2012
▁Medicaid	-11.2013
▁Nature	-11.2014
▁Wayne	-11.2016
▁pound	-11.2016
aging	-11.2019
▁30,	-11.2019
▁(10	-11.2019
▁inbox	-11.2023
bad	-11.2023
▁compound	-11.2026
▁58	-11.2027
▁employer	-11.2029
▁Ky	-11.2029
▁meters	-11.203
phe	-11.2031
sur	-11.2032
▁accepting	-11.2033
▁tension	-11.2041
▁$20	-11.2042
gal	-11.2044
▁tu	-11.2047
▁regarded	-11.2047
▁Steam	-11.2048
▁vary	-11.2051
▁bags	-11.2052
▁HE	-11.2052
market	-11.2055
▁cooking	-11.2055
▁hike	-11.2056
▁influential	-11.2057
▁Cre	-11.2057
Vi	-11.2058
▁constructed	-11.2059
SD	-11.2061
▁Tan	-11.2062
▁BA	-11.2063
spec	-11.2064
▁SE	-11.2064
▁Ros	-11.2064
▁template	-11.2066
▁Anyone	-11.2066
stream	-11.2067
▁explosive	-11.2067
▁discount	-11.2069
▁participating	-11.2071
▁Draft	-11.2071
▁productivity	-11.2072
▁reviewed	-11.2076
igan	-11.2076
▁excess	-11.2077
▁impressed	-11.208
try	-11.2082
▁fingers	-11.2084
▁butter	-11.2085
Image	-11.2091
cor	-11.2091
IR	-11.2093
▁lighting	-11.2095
▁recovered	-11.2096
▁Rio	-11.2097
▁Bor	-11.2101
▁functionality	-11.2103
▁occupied	-11.2104
▁Posted	-11.2107
such	-11.2109
▁preventing	-11.2111
where	-11.2112
▁demonstration	-11.2112
?)	-11.2113
▁Pop	-11.2116
▁theater	-11.2119
▁operated	-11.2121
▁tunnel	-11.2127
▁neutral	-11.2128
rous	-11.2129
▁Ferguson	-11.213
▁accuracy	-11.213
▁tragedy	-11.213
▁arise	-11.213
▁Java	-11.2131
▁12,	-11.2134
▁ce	-11.2135
nda	-11.2136
▁migration	-11.2139
▁#2	-11.2141
Li	-11.2141
km	-11.2143
▁insight	-11.2144
▁Buffalo	-11.2144
▁globe	-11.2144
TO	-11.2145
▁investigated	-11.2146
▁25,	-11.215
▁headlines	-11.2155
▁charging	-11.2155
▁attracted	-11.2157
▁Manning	-11.2159
hole	-11.2159
▁residential	-11.216
▁Mil	-11.216
▁tablet	-11.2163
▁cu	-11.2164
▁eager	-11.2164
▁99	-11.2164
▁Brand	-11.2166
▁promoted	-11.2169
▁similarly	-11.217
▁beef	-11.2172
▁projected	-11.2173
▁orientation	-11.2174
▁Kings	-11.2177
version	-11.2177
TP	-11.2177
▁59	-11.218
oz	-11.2181
ili	-11.2181
▁Tell	-11.2182
▁Off	-11.2187
▁Quebec	-11.2189
▁Bro	-11.2193
▁11.	-11.2194
▁distinction	-11.2194
▁provisions	-11.22
▁Stanford	-11.2204
▁starter	-11.2204
▁Peace	-11.2204
▁66	-11.2204
▁consultant	-11.2204
▁comics	-11.2205
▁Olympics	-11.2205
▁31,	-11.2208
▁praised	-11.2208
oma	-11.2208
▁Doug	-11.2211
lf	-11.2212
▁iconic	-11.2212
▁Blood	-11.2215
xi	-11.2216
▁performances	-11.2217
▁exploring	-11.2218
▁fatal	-11.2222
fold	-11.2225
las	-11.2227
▁rebel	-11.2229
lus	-11.2232
▁RO	-11.2233
▁legislature	-11.2233
▁Hitler	-11.2234
▁devastating	-11.2236
lly	-11.2236
▁Non	-11.2237
▁graphic	-11.2238
▁Susan	-11.224
ENT	-11.2241
leg	-11.2245
▁nail	-11.2245
ome	-11.2247
▁horrible	-11.2248
▁Tampa	-11.2248
▁fled	-11.2248
▁assess	-11.2249
dor	-11.225
user	-11.225
▁trains	-11.2252
▁shops	-11.2253
</	-11.2257
▁DJ	-11.2262
▁awkward	-11.2263
▁uncomfortable	-11.2263
▁Melbourne	-11.2263
▁Cuba	-11.2263
▁sword	-11.2264
▁Word	-11.2264
▁professionals	-11.2264
▁BE	-11.2265
▁ge	-11.227
▁folder	-11.2272
case	-11.2272
▁meanwhile	-11.2278
profile	-11.2281
▁crossed	-11.2281
▁Trek	-11.2281
etic	-11.2283
▁est	-11.2285
▁earthquake	-11.2292
▁empire	-11.2292
▁awards	-11.2302
▁facilitate	-11.2307
▁battles	-11.2311
▁towns	-11.2315
▁bombs	-11.2316
ith	-11.232
▁assists	-11.2321
▁Dakota	-11.2322
▁Fantasy	-11.2322
▁Mississippi	-11.2322
▁luxury	-11.2322
▁McDonald	-11.2322
▁infant	-11.2323
▁camps	-11.233
than	-11.2336
▁wisdom	-11.2337
▁ultra	-11.2337
▁Rubio	-11.2338
▁prescription	-11.2338
▁transformation	-11.2342
his	-11.2343
▁Hispanic	-11.2343
▁Sessions	-11.2344
▁economics	-11.2346
▁converted	-11.2349
▁liberty	-11.2352
▁murdered	-11.2353
▁Brandon	-11.2355
roid	-11.2357
▁Hal	-11.2358
▁tears	-11.2359
▁checking	-11.2365
▁launching	-11.2366
▁couples	-11.2367
▁Federation	-11.2367
▁Turn	-11.2368
▁Close	-11.2369
▁Brazilian	-11.2372
▁Soon	-11.2375
▁plea	-11.2376
▁highlighted	-11.2376
▁reminder	-11.2378
▁outstanding	-11.2379
▁30-	-11.2379
▁ob	-11.238
rat	-11.2381
▁fascinating	-11.2382
▁entity	-11.2382
▁Murphy	-11.2382
▁Oxford	-11.2382
▁periods	-11.2383
▁Marshall	-11.2383
store	-11.2384
▁mall	-11.2384
▁Against	-11.2384
▁speeds	-11.2385
▁Low	-11.2386
ika	-11.2386
ERS	-11.2397
▁limitations	-11.2397
▁chunk	-11.2397
▁cult	-11.24
eo	-11.2401
OK	-11.2401
▁ba	-11.2404
▁dressed	-11.2409
▁creator	-11.241
▁3:	-11.2411
▁bizarre	-11.2412
▁fool	-11.2413
▁cleared	-11.2413
▁WWE	-11.2415
▁checked	-11.2416
▁collecting	-11.2418
▁slight	-11.242
▁seeds	-11.2425
▁Bird	-11.2425
▁foods	-11.2428
▁outfit	-11.2428
rn	-11.2431
▁airline	-11.2431
nu	-11.2431
▁AR	-11.2433
By	-11.244
▁accompanied	-11.2443
▁residence	-11.2443
->	-11.2443
▁sequel	-11.2443
▁Pinterest	-11.2444
▁fishing	-11.2448
▁2008.	-11.2449
Time	-11.245
▁Currently	-11.245
▁ministers	-11.2456
▁Hurricane	-11.2458
▁Pet	-11.246
second	-11.2462
▁hosting	-11.2462
▁bat	-11.2466
▁evolved	-11.247
▁exploration	-11.2473
▁mosque	-11.2473
▁Short	-11.2473
▁leverage	-11.2476
▁keen	-11.2477
▁adaptation	-11.2477
member	-11.2478
bre	-11.2478
▁Elsa	-11.2478
being	-11.2482
▁360	-11.2482
wise	-11.2483
▁250	-11.2485
▁Canadians	-11.2486
vid	-11.2487
▁triple	-11.2487
▁shore	-11.2492
dding	-11.2493
▁appointment	-11.2495
▁72	-11.2495
▁sole	-11.2499
▁resume	-11.2501
▁oldest	-11.2502
▁addiction	-11.2505
dr	-11.2505
▁temple	-11.2506
▁competitors	-11.2506
▁Communist	-11.2507
▁Dick	-11.2509
jan	-11.2511
▁manual	-11.2513
pu	-11.2513
▁Coalition	-11.2519
▁innovative	-11.2519
main	-11.2519
▁ceiling	-11.2519
▁shocking	-11.2519
quality	-11.252
▁Eagles	-11.2522
▁Orange	-11.2522
▁controller	-11.2522
▁realistic	-11.2525
iest	-11.2528
▁Pence	-11.2529
▁breach	-11.2533
▁Merkel	-11.2534
4)	-11.2534
▁automatic	-11.2535
mile	-11.2537
▁pump	-11.2538
▁Mis	-11.2541
▁pile	-11.2543
▁Something	-11.2544
▁mate	-11.2544
▁ranging	-11.2547
”)	-11.2549
▁amongst	-11.2549
▁HTML	-11.2549
▁Shadow	-11.2549
▁countless	-11.2553
▁Mission	-11.2554
▁Too	-11.2557
▁Express	-11.2558
▁Natural	-11.2559
half	-11.2559
▁Help	-11.2563
▁beneath	-11.2565
▁tanks	-11.2573
▁applying	-11.2573
Sha	-11.2573
▁belong	-11.2575
aire	-11.2575
▁CC	-11.2576
▁Mobile	-11.2578
▁Fast	-11.2578
▁dose	-11.2579
▁preview	-11.258
▁PlayStation	-11.258
▁admission	-11.258
stop	-11.258
▁Almost	-11.2581
▁dirty	-11.2587
▁screening	-11.2587
▁continent	-11.2588
▁operator	-11.2589
anti	-11.259
▁800	-11.259
▁ideological	-11.2595
▁threshold	-11.2595
▁radar	-11.2595
.[5]	-11.2596
▁spotted	-11.2599
▁mat	-11.2601
Name	-11.2604
weight	-11.2604
8)	-11.2607
4,000	-11.2608
▁AFP	-11.261
▁Benjamin	-11.2611
▁honour	-11.2611
▁significance	-11.2611
▁witnessed	-11.2611
▁acted	-11.2612
▁delivering	-11.2612
News	-11.2612
rant	-11.2615
▁raises	-11.2618
▁2.5	-11.262
▁equipped	-11.2622
▁Heat	-11.2624
▁Deputy	-11.2626
▁prayer	-11.2626
9)	-11.2626
▁flew	-11.2626
hor	-11.2627
▁theft	-11.2629
▁commentary	-11.2632
fr	-11.2634
▁robots	-11.2637
▁painting	-11.2639
▁predecessor	-11.2641
▁pursuit	-11.2642
▁OR	-11.2642
▁cops	-11.2643
▁texture	-11.2643
mel	-11.2644
▁intelligent	-11.2647
▁quietly	-11.2647
▁remembered	-11.2648
▁reactions	-11.2649
▁20%	-11.2649
▁poorly	-11.2655
▁reception	-11.2657
▁Cambridge	-11.2657
ked	-11.2659
ato	-11.2659
▁Blog	-11.266
▁newsletters	-11.2661
nel	-11.2663
▁missiles	-11.2663
▁Patriots	-11.2663
ifi	-11.2668
▁Oil	-11.2671
▁Gray	-11.2672
▁elaborate	-11.2672
▁Mitchell	-11.2673
▁anchor	-11.2673
▁magical	-11.2673
▁scrutiny	-11.2674
▁trash	-11.2676
▁SO	-11.2677
two	-11.2681
▁Sto	-11.2682
PC	-11.2682
▁startup	-11.2687
▁critic	-11.2688
▁availability	-11.2688
▁viral	-11.2688
▁subscription	-11.2688
▁citizenship	-11.2689
▁Chuck	-11.2689
▁Players	-11.2689
▁DO	-11.2692
▁weigh	-11.2692
▁stem	-11.2692
▁fo	-11.2694
olo	-11.2694
▁suggestions	-11.2695
▁fuck	-11.2701
▁Gra	-11.2703
▁greenhouse	-11.2705
ily	-11.2706
▁stopping	-11.2709
▁Alberta	-11.2712
▁container	-11.2712
▁socialist	-11.2713
▁polling	-11.2717
dal	-11.2717
▁pending	-11.2718
▁clever	-11.2719
▁completion	-11.2719
DP	-11.2719
▁Fan	-11.2721
▁contend	-11.2722
▁Seven	-11.2723
▁confirmation	-11.2723
▁euro	-11.2724
first	-11.2724
used	-11.2725
▁publisher	-11.2725
▁Bio	-11.2726
lum	-11.2731
▁Villa	-11.2734
▁76	-11.2735
▁compelling	-11.2735
▁Fred	-11.2736
▁Return	-11.2743
data	-11.2743
▁6-	-11.2744
▁retreat	-11.2747
▁Abbott	-11.275
▁faculty	-11.275
▁sophisticated	-11.275
▁Madrid	-11.275
▁auction	-11.2753
▁Lady	-11.2754
▁Corps	-11.2755
▁Kas	-11.2756
▁qualify	-11.2758
▁Champions	-11.2764
▁Wind	-11.2765
▁Barcelona	-11.2766
▁pizza	-11.2766
▁Jam	-11.2768
▁occasions	-11.2768
▁TR	-11.2768
▁GA	-11.2771
▁dealt	-11.2772
SL	-11.2775
▁Bla	-11.2776
▁Whit	-11.2777
▁dr	-11.2779
▁withdraw	-11.2779
OP	-11.2779
▁sneak	-11.2781
▁foster	-11.2782
▁layers	-11.2783
▁frustrated	-11.2783
▁render	-11.2784
atory	-11.2785
▁12.	-11.2786
▁Race	-11.2788
▁fabric	-11.2792
stra	-11.2794
▁Lawrence	-11.2797
▁powder	-11.2797
▁replacing	-11.2797
▁crystal	-11.2797
▁supporter	-11.2798
HA	-11.2799
phy	-11.28
ona	-11.2801
9%	-11.2802
▁libertarian	-11.2802
▁yard	-11.2807
▁appearing	-11.2809
▁Netanyahu	-11.2813
▁pregnancy	-11.2813
6)	-11.2816
▁cartoon	-11.2817
▁mechanical	-11.2818
▁shorter	-11.2818
▁observe	-11.282
▁Fall	-11.2821
▁pri	-11.2821
▁golden	-11.2824
▁Gas	-11.2828
▁documented	-11.2829
▁Senior	-11.2829
asse	-11.283
▁Keith	-11.283
▁lady	-11.2831
▁Asked	-11.2832
▁audit	-11.2833
▁affects	-11.2838
acy	-11.2842
▁brush	-11.2842
▁advocacy	-11.2844
▁Whatever	-11.2844
▁packages	-11.2845
▁Yahoo	-11.2845
▁1988	-11.2846
-18	-11.2847
▁toilet	-11.285
▁Storm	-11.2852
▁Consider	-11.2853
▁Blake	-11.2853
▁Brady	-11.2856
▁stroke	-11.2858
▁Campaign	-11.286
▁ambitious	-11.286
▁conservation	-11.286
▁Profile	-11.2861
▁61	-11.2862
▁Salt	-11.2862
▁FOR	-11.2864
eck	-11.2869
▁unfortunately	-11.2869
add	-11.287
▁Saints	-11.2872
▁loves	-11.2875
▁Magazine	-11.2876
▁outbreak	-11.2877
▁notably	-11.2878
▁Cast	-11.2878
▁NE	-11.288
▁ka	-11.2883
▁pi	-11.2883
PP	-11.2883
▁Eye	-11.2883
iva	-11.2884
▁Arm	-11.2885
▁complexity	-11.2885
▁prevented	-11.2885
▁chemicals	-11.2886
▁Soul	-11.2891
▁earnings	-11.2892
▁Vladimir	-11.2892
▁reflects	-11.2893
▁$15	-11.2894
▁deserves	-11.2895
▁Evans	-11.2895
▁documentation	-11.2898
mu	-11.2898
ional	-11.2902
▁600	-11.2903
▁electrical	-11.2904
▁Russians	-11.2905
▁Cro	-11.2906
plus	-11.2907
▁declaration	-11.2907
▁villain	-11.2908
OT	-11.2911
▁Political	-11.2912
▁sleeping	-11.2913
▁bother	-11.2917
▁scholars	-11.2917
specific	-11.2918
▁reflection	-11.2919
▁winners	-11.2921
dia	-11.2922
iff	-11.2922
▁neo	-11.2923
check	-11.2923
▁ghost	-11.2924
▁barrel	-11.2927
▁hosts	-11.2927
▁addressing	-11.2927
▁listing	-11.2927
▁gym	-11.2928
▁Philippines	-11.2929
bury	-11.2931
zu	-11.2935
▁Comp	-11.2937
▁Mid	-11.2937
▁12-	-11.2938
▁hybrid	-11.2939
▁pricing	-11.294
▁buzz	-11.294
▁2,000	-11.294
say	-11.2941
▁enterprise	-11.2941
▁separated	-11.2942
▁visits	-11.2943
▁neighborhoods	-11.2944
▁Ward	-11.2945
▁rivals	-11.2946
▁(18	-11.295
▁Bin	-11.2951
show	-11.2951
▁Todd	-11.2951
▁criminals	-11.2952
▁approve	-11.2953
▁suspicious	-11.2955
▁vacation	-11.2955
▁ethical	-11.2955
▁fails	-11.2958
▁Obviously	-11.2962
▁bears	-11.2962
▁Christianity	-11.2963
track	-11.2965
uz	-11.2965
▁Gr	-11.2971
▁painted	-11.2971
▁Swiss	-11.2974
▁poly	-11.2975
NT	-11.2978
enberg	-11.2978
ava	-11.298
date	-11.298
▁("	-11.2986
NO	-11.2986
▁tale	-11.2986
▁Try	-11.2987
▁cricket	-11.2987
aci	-11.2988
sure	-11.2988
▁18,	-11.299
▁desired	-11.299
▁gradually	-11.2991
eu	-11.2993
hol	-11.2993
▁viable	-11.2994
lip	-11.2996
▁annually	-11.2998
▁peers	-11.3
▁condemned	-11.3
▁absurd	-11.3001
▁particles	-11.3002
▁credits	-11.3002
▁bureau	-11.3003
▁venue	-11.3006
▁carrier	-11.3007
Mar	-11.3008
EA	-11.301
▁devoted	-11.301
Sa	-11.3011
rid	-11.3019
▁attendance	-11.3021
▁Prior	-11.3021
▁Christie	-11.3022
▁rewards	-11.3024
because	-11.3027
▁Command	-11.303
▁Join	-11.303
▁Due	-11.3031
▁tent	-11.3034
▁cousin	-11.3035
els	-11.3036
▁passionate	-11.3037
▁62	-11.3038
▁disappeared	-11.3039
▁streak	-11.304
▁traveled	-11.3041
▁Records	-11.3043
speed	-11.3045
hil	-11.3046
▁Barry	-11.3046
▁buyers	-11.3049
▁expose	-11.305
▁Hat	-11.3052
site	-11.3052
▁bow	-11.3053
▁teen	-11.3054
("	-11.3057
▁Saint	-11.3057
vic	-11.3059
▁lap	-11.3061
▁Switzerland	-11.3067
▁mandatory	-11.3067
▁Safety	-11.3068
▁FCC	-11.3071
▁0.0	-11.3072
▁Kerry	-11.3072
hin	-11.3072
fin	-11.3078
▁supposedly	-11.3078
▁IRS	-11.3079
stein	-11.308
][	-11.3081
▁transparent	-11.3084
▁stressed	-11.3088
▁partially	-11.3091
▁reply	-11.3091
▁surge	-11.3092
▁Ave	-11.3094
▁feminist	-11.3097
▁Military	-11.31
▁NCAA	-11.31
▁Bloomberg	-11.3104
though	-11.3105
▁Yang	-11.3105
▁quo	-11.3106
▁Kirk	-11.3111
▁Micro	-11.3111
▁Studio	-11.3112
▁Hawaii	-11.3113
▁Mun	-11.3113
lk	-11.3115
▁immune	-11.3116
▁slavery	-11.3117
▁strengthen	-11.3121
▁Mind	-11.3123
home	-11.3126
▁drunk	-11.3129
▁Ven	-11.313
sum	-11.3138
▁hiding	-11.3138
▁lobby	-11.3139
▁trace	-11.3141
▁Ana	-11.3141
▁manufacturer	-11.3142
▁fits	-11.3142
▁Ian	-11.3147
cate	-11.3148
▁nerve	-11.3149
▁naked	-11.3149
▁oversight	-11.3149
▁duties	-11.3149
▁marry	-11.315
▁pressing	-11.315
▁halt	-11.3151
▁photographs	-11.3151
▁disappear	-11.3154
▁Similarly	-11.3155
▁achievement	-11.3159
looking	-11.316
▁Ob	-11.3161
▁calculated	-11.3162
▁Spirit	-11.3164
▁ritual	-11.3165
6,000	-11.3165
▁opens	-11.3169
ators	-11.3169
boy	-11.3169
▁mega	-11.317
▁focuses	-11.317
▁grants	-11.3171
▁Rice	-11.3172
▁2009.	-11.3174
▁$9	-11.3175
pet	-11.3178
▁excessive	-11.3178
▁IV	-11.3178
▁summary	-11.3181
▁formally	-11.3181
▁disturbing	-11.3185
block	-11.3189
▁touchdown	-11.319
▁presents	-11.3191
▁spray	-11.3194
▁firearms	-11.3196
MC	-11.3196
▁penalties	-11.3197
▁serial	-11.3198
▁spike	-11.3198
7)	-11.3198
▁Lions	-11.32
til	-11.3201
▁assumption	-11.3202
PO	-11.3202
▁dump	-11.3205
▁beaten	-11.3209
▁acquire	-11.3212
kan	-11.3214
________________	-11.3214
▁flexible	-11.3214
lot	-11.3214
mont	-11.3216
▁Shu	-11.3218
▁seal	-11.322
gon	-11.3223
▁violated	-11.3226
▁propose	-11.3229
▁stomach	-11.323
▁Met	-11.323
bus	-11.323
▁distant	-11.323
▁viewing	-11.3231
▁coat	-11.3234
pha	-11.3234
▁revealing	-11.3235
▁wrap	-11.3235
">	-11.3238
▁Ever	-11.3238
▁spy	-11.3242
▁Money	-11.3244
▁damn	-11.3245
▁agriculture	-11.3246
elli	-11.3247
▁mixture	-11.3247
EM	-11.3248
▁Fri	-11.3248
nny	-11.3248
zing	-11.3251
▁churches	-11.3252
team	-11.3254
government	-11.3255
▁Robin	-11.3258
▁Song	-11.3262
▁intend	-11.3262
▁Oliver	-11.3262
▁Columbus	-11.3263
minded	-11.3263
▁Posts	-11.3265
ancy	-11.3267
▁consequence	-11.3272
▁median	-11.3273
tail	-11.3273
":	-11.3273
ject	-11.3274
▁complain	-11.3274
▁63	-11.3275
▁instantly	-11.3275
▁responding	-11.3277
▁capitalist	-11.3279
▁libraries	-11.3279
▁permitted	-11.3281
▁Parker	-11.3293
▁teenager	-11.3294
▁tragic	-11.3296
▁AL	-11.3296
▁Nine	-11.3296
▁Neither	-11.3296
ras	-11.3297
▁Snow	-11.3297
▁brick	-11.3297
▁1986	-11.3298
▁classroom	-11.3298
ssociated	-11.3298
div	-11.33
east	-11.3303
▁honestly	-11.3303
▁Commons	-11.3303
▁Matter	-11.3305
▁LED	-11.3305
dict	-11.3305
▁attorneys	-11.3308
▁Phone	-11.3309
▁Der	-11.331
▁finishing	-11.331
▁expects	-11.3312
▁experiencing	-11.3312
▁flexibility	-11.3312
aged	-11.3313
▁Terry	-11.3313
▁neighbor	-11.3316
story	-11.3317
rri	-11.3318
▁respected	-11.3323
lies	-11.3324
▁Ronald	-11.3324
▁cre	-11.3326
▁(7	-11.3326
▁regulate	-11.3328
▁arena	-11.3329
▁Eventually	-11.3329
▁Prize	-11.3329
▁Updated	-11.333
▁gate	-11.3331
▁endless	-11.3332
mir	-11.3338
▁designated	-11.3338
▁comply	-11.3339
ller	-11.3339
▁qui	-11.3339
asi	-11.3343
▁treasure	-11.3345
▁bicycle	-11.3345
▁lanes	-11.3345
▁expertise	-11.3347
▁bitter	-11.3347
▁suggestion	-11.3348
1.	-11.3348
▁convey	-11.3348
▁rice	-11.335
▁arrests	-11.3352
▁drinks	-11.3353
▁Around	-11.3355
▁behave	-11.3355
pound	-11.3356
▁SS	-11.336
▁safer	-11.3361
▁trauma	-11.3361
sley	-11.3366
▁tick	-11.3367
▁accomplished	-11.3368
▁CR	-11.3369
lig	-11.337
DD	-11.3374
▁seeks	-11.3374
▁Cole	-11.3374
▁Douglas	-11.3379
▁boundaries	-11.3379
▁fortune	-11.3379
▁Animal	-11.3379
▁scrap	-11.338
–1	-11.338
▁NC	-11.3382
▁ga	-11.3382
HO	-11.3386
▁abstract	-11.3388
▁HP	-11.3391
ear	-11.3393
▁loyal	-11.3393
▁fraction	-11.3395
▁unnecessary	-11.3395
▁billionaire	-11.3396
pat	-11.3397
▁questioning	-11.3397
▁hostile	-11.3397
tone	-11.3397
▁Awards	-11.3398
▁FDA	-11.3398
▁scar	-11.34
▁poster	-11.34
▁Hol	-11.3402
▁wrapped	-11.3402
Ch	-11.3408
Of	-11.3409
▁Text	-11.3411
▁insult	-11.3411
▁Qatar	-11.3412
DE	-11.3414
▁bugs	-11.3416
wo	-11.3416
▁Border	-11.3417
kov	-11.3418
ude	-11.3419
▁Cer	-11.342
▁gaining	-11.3421
▁scary	-11.3421
▁pretend	-11.3422
▁tele	-11.3425
▁oxygen	-11.3428
▁visa	-11.3428
3,000	-11.3429
▁porn	-11.343
Lo	-11.3434
▁Friends	-11.3439
▁shower	-11.3442
▁economist	-11.3442
▁briefing	-11.3442
ask	-11.3443
▁mask	-11.3445
▁illegally	-11.3446
▁resigned	-11.3447
▁seventh	-11.3448
▁Maine	-11.3452
т	-11.3454
arian	-11.3457
▁drought	-11.3462
hop	-11.3462
▁generous	-11.3462
▁Harvey	-11.3462
teen	-11.3462
▁Arthur	-11.3462
▁altogether	-11.3462
▁Tyler	-11.3463
▁Mormon	-11.3464
-13	-11.3465
▁anticipated	-11.3465
▁Bit	-11.3466
▁sink	-11.3471
▁ON	-11.3471
have	-11.3472
▁singing	-11.3474
bol	-11.3478
▁Kra	-11.3478
▁Wikipedia	-11.3479
▁striker	-11.3481
▁advised	-11.3481
host	-11.3482
▁Venezuela	-11.3483
mmer	-11.3485
▁workplace	-11.3486
▁crown	-11.349
▁attraction	-11.3491
▁Ce	-11.3493
▁Arkansas	-11.3495
▁monetary	-11.3495
▁Temple	-11.3496
▁Budget	-11.3496
▁1984	-11.3497
▁helmet	-11.3497
▁acceptance	-11.3498
▁newspapers	-11.3498
▁Stock	-11.3499
▁Talk	-11.3501
▁ramp	-11.3501
▁Track	-11.3502
▁filling	-11.3503
▁welcomed	-11.3512
▁95	-11.3512
stage	-11.3512
▁vegan	-11.3513
▁rumors	-11.3513
▁lease	-11.3514
▁riot	-11.3516
▁balanced	-11.3519
▁waited	-11.3522
▁Rod	-11.3527
▁Photograph	-11.3527
▁celebrity	-11.3529
▁sheriff	-11.3532
TT	-11.3534
▁intensity	-11.3534
handed	-11.3534
▁consume	-11.3536
▁snap	-11.3536
▁jokes	-11.3539
▁1/2	-11.3541
NY	-11.3545
▁agricultural	-11.3546
▁ugly	-11.3546
▁retailers	-11.3547
▁massacre	-11.3547
▁1979	-11.3548
▁commands	-11.3549
▁powered	-11.355
▁precise	-11.3552
▁insane	-11.3553
▁spreading	-11.3553
uma	-11.3554
▁tier	-11.3554
▁Lang	-11.3555
▁pledged	-11.3556
bur	-11.3556
▁mechanisms	-11.3557
▁reign	-11.3562
▁1.0	-11.3562
▁actress	-11.3563
▁breakfast	-11.3563
▁Need	-11.3565
▁Solar	-11.3565
▁parks	-11.3566
▁initiatives	-11.3569
ao	-11.3571
nie	-11.3571
▁ver	-11.3572
▁Operation	-11.3573
▁URL	-11.3574
▁Jacob	-11.3575
▁strain	-11.3575
▁trips	-11.3575
▁secular	-11.3579
▁dish	-11.358
▁colleague	-11.358
gui	-11.3581
▁coins	-11.3581
▁interactions	-11.3581
▁$50	-11.3583
fl	-11.3588
▁References	-11.3591
lis	-11.3593
▁Gor	-11.3598
▁mature	-11.3598
ML	-11.3599
ender	-11.36
▁unlock	-11.36
▁tends	-11.3601
▁pla	-11.3602
6%	-11.3602
▁medal	-11.3603
struct	-11.3605
▁fucking	-11.3605
▁evaluate	-11.3607
after	-11.3609
▁absorb	-11.3611
▁ally	-11.3612
▁Circuit	-11.3614
▁evaluation	-11.3614
▁walks	-11.3614
▁grabbed	-11.3614
▁derived	-11.3615
▁Case	-11.3617
pot	-11.3619
▁Eight	-11.362
▁Roberts	-11.3621
▁deliberately	-11.3621
SI	-11.3622
▁consists	-11.3622
▁shade	-11.3626
▁trucks	-11.363
▁celebrated	-11.363
▁hacking	-11.3632
print	-11.3633
▁circles	-11.3636
▁elderly	-11.3638
outs	-11.364
▁taxi	-11.3642
▁enjoying	-11.3642
▁GP	-11.3645
▁punch	-11.3646
▁reserves	-11.3647
rm	-11.3647
▁Contact	-11.3648
national	-11.3652
▁0.5	-11.3652
▁humanitarian	-11.3652
rg	-11.3656
▁realm	-11.3657
rel	-11.3661
▁execute	-11.3665
UC	-11.3665
▁Carr	-11.3665
▁li	-11.3665
▁gesture	-11.3665
▁structural	-11.3665
def	-11.3665
▁Spider	-11.3666
▁grateful	-11.3666
itch	-11.3669
▁Latino	-11.3671
▁impacts	-11.3675
▁Rogers	-11.3675
▁Tre	-11.3676
▁sustain	-11.3677
▁Ltd	-11.3677
▁Poll	-11.3679
▁Crown	-11.368
▁gig	-11.3682
ico	-11.3682
▁animated	-11.3682
▁frozen	-11.3683
▁purely	-11.3686
ground	-11.3686
▁lean	-11.3686
hill	-11.3687
dies	-11.369
▁knocked	-11.369
▁designers	-11.3691
▁Lock	-11.3691
▁2005,	-11.3692
Or	-11.3693
berry	-11.3694
met	-11.3695
▁reaches	-11.3697
▁bones	-11.3698
▁outrage	-11.3699
▁Trudeau	-11.3699
▁administrative	-11.3699
▁happiness	-11.3699
▁Broncos	-11.3699
▁placing	-11.37
▁spacecraft	-11.3701
rating	-11.3701
▁Hey	-11.3701
▁priorities	-11.3701
▁ra	-11.3703
front	-11.3704
▁drops	-11.3708
▁relatives	-11.371
▁Fixed	-11.3712
▁historically	-11.3716
▁arguably	-11.3717
▁comparable	-11.3717
▁pursuing	-11.3717
▁subsidies	-11.3717
▁Century	-11.3717
▁substitute	-11.3717
▁Country	-11.3717
col	-11.3717
▁GPU	-11.3719
▁interpret	-11.3719
kill	-11.3722
▁Jake	-11.3724
BO	-11.3725
ffe	-11.3726
▁casting	-11.3727
▁exports	-11.3733
▁temporarily	-11.3734
▁Madison	-11.3734
▁refusing	-11.3734
▁tenure	-11.3736
▁waters	-11.3737
▁Guide	-11.3738
▁fastest	-11.374
▁Imagine	-11.374
▁habits	-11.3743
▁Pac	-11.3746
people	-11.3746
▁displays	-11.3746
▁Pin	-11.375
▁funeral	-11.3751
▁Chronicle	-11.3752
jun	-11.3752
▁CP	-11.3752
▁controlling	-11.3754
▁Karl	-11.3756
▁Search	-11.3757
mas	-11.3759
▁Ci	-11.3759
piece	-11.3763
After	-11.3763
▁plugin	-11.3763
▁comp	-11.3764
▁lesbian	-11.3768
▁Medicine	-11.3768
▁treating	-11.3769
▁Title	-11.3769
its	-11.3772
▁Dev	-11.3774
▁operators	-11.3776
▁hash	-11.3776
wl	-11.3777
▁Arts	-11.3779
▁resolved	-11.3779
▁attributed	-11.3782
▁heaven	-11.3786
▁tongue	-11.3786
▁Gear	-11.3787
▁capability	-11.3787
▁Hope	-11.3788
▁remind	-11.3789
0.1	-11.379
▁tensions	-11.3792
meter	-11.3794
▁bonds	-11.3796
While	-11.3798
los	-11.3799
▁meantime	-11.3802
▁divorce	-11.3803
▁linebacker	-11.3803
eri	-11.3804
▁Lucas	-11.3804
duct	-11.3806
▁observation	-11.3809
▁UPDATE	-11.381
walk	-11.3811
▁67	-11.3814
▁observations	-11.3814
▁parade	-11.3815
▁probability	-11.382
▁distress	-11.382
▁1930	-11.3822
▁(2)	-11.3823
▁resignation	-11.3823
▁friendship	-11.3825
▁CH	-11.3826
zen	-11.3829
▁NEW	-11.383
▁makers	-11.383
▁Franklin	-11.3831
▁Pur	-11.3833
wer	-11.3838
▁slice	-11.3839
▁parliamentary	-11.3839
▁Reg	-11.3841
▁BP	-11.3844
▁printing	-11.3845
ivity	-11.3845
talk	-11.3846
▁males	-11.3848
gri	-11.3855
▁generic	-11.3855
.[6]	-11.3858
▁optimistic	-11.3859
▁Know	-11.386
▁autonomous	-11.386
ops	-11.3865
ALL	-11.3865
Fa	-11.3866
▁armor	-11.3867
▁QB	-11.3868
ido	-11.3871
TR	-11.3872
▁Beck	-11.3872
▁Belgium	-11.3872
▁Cincinnati	-11.3872
▁imagination	-11.3872
▁tutorial	-11.3873
ect	-11.3873
▁pink	-11.3873
▁Mat	-11.3874
▁SD	-11.3879
▁construct	-11.3882
nis	-11.3882
▁deposit	-11.3883
▁Turner	-11.3886
chen	-11.3887
▁READ	-11.3889
▁Nevertheless	-11.389
▁companion	-11.389
▁respondents	-11.389
▁Inside	-11.3892
▁Thr	-11.3897
▁bass	-11.3899
OW	-11.39
▁suppose	-11.3907
▁courage	-11.3907
▁Besides	-11.3908
▁Liberty	-11.3908
▁1987	-11.3909
▁shifted	-11.3909
En	-11.3911
▁plates	-11.3911
▁DNC	-11.3911
▁freely	-11.3919
▁identifying	-11.3921
▁Morris	-11.3922
▁cancel	-11.3922
dev	-11.3923
▁innings	-11.3924
shire	-11.3925
▁equation	-11.3925
▁computing	-11.3925
▁charter	-11.3925
▁juice	-11.3926
▁Wo	-11.3927
▁fi	-11.3928
gre	-11.393
▁consist	-11.3931
▁presumably	-11.3932
▁Hor	-11.3933
▁troll	-11.3933
▁revenues	-11.3933
▁celebration	-11.3934
Car	-11.3935
▁traditionally	-11.3935
▁alike	-11.3935
▁Bear	-11.3935
▁respective	-11.3937
▁bases	-11.3937
vit	-11.3938
▁donated	-11.3938
▁winds	-11.394
ept	-11.3941
▁pie	-11.3941
▁stunning	-11.3943
▁exam	-11.3946
▁Bri	-11.3947
▁equity	-11.3949
duc	-11.395
rah	-11.3954
▁diagnosed	-11.3954
▁Kill	-11.3956
five	-11.3957
cra	-11.3957
▁evident	-11.3957
▁announcing	-11.396
▁heritage	-11.396
▁alternate	-11.396
▁Record	-11.3961
▁fur	-11.3962
▁emotion	-11.3963
ua	-11.3964
▁participated	-11.3965
funded	-11.3969
▁touched	-11.397
▁Content	-11.397
▁pipe	-11.3974
controlled	-11.3975
▁Books	-11.3978
▁grasp	-11.3978
▁Stop	-11.3978
▁midfielder	-11.3978
▁Cowboys	-11.3978
▁duration	-11.3978
▁denial	-11.3979
▁hatred	-11.3979
lem	-11.3979
▁Bond	-11.3985
▁zones	-11.3988
▁Kam	-11.3989
▁inappropriate	-11.3994
▁bedroom	-11.3995
▁romantic	-11.3996
▁nest	-11.3997
▁bare	-11.3997
▁AMD	-11.3997
IO	-11.3999
▁showcase	-11.4
ced	-11.4004
▁WE	-11.4004
▁Ok	-11.4004
▁strongest	-11.4006
▁Len	-11.4007
-15	-11.401
service	-11.401
▁entities	-11.4013
▁kingdom	-11.4014
▁Chapter	-11.4014
sol	-11.4016
▁composed	-11.4017
▁DA	-11.4019
pped	-11.4021
root	-11.4021
call	-11.4022
SON	-11.4023
▁Gall	-11.4024
▁rental	-11.4025
iel	-11.4025
▁conclusions	-11.4025
▁PT	-11.4025
▁2004,	-11.4026
El	-11.4026
▁planes	-11.4027
tive	-11.4031
▁BY	-11.4031
▁Brussels	-11.4031
▁brave	-11.4033
▁Ring	-11.4033
mis	-11.4037
▁survivors	-11.4037
▁Conservatives	-11.404
lle	-11.404
50,000	-11.4041
▁elect	-11.4043
▁infected	-11.4044
▁cache	-11.4046
▁token	-11.4047
▁Lou	-11.4048
▁steep	-11.4049
▁Save	-11.4049
gas	-11.4049
storm	-11.405
▁inclusion	-11.4054
ics	-11.4055
▁immigrant	-11.4056
▁Johnny	-11.4056
▁20,	-11.4061
▁Mur	-11.4062
▁Direct	-11.4065
▁Chrome	-11.4065
▁Reading	-11.4066
▁Corbyn	-11.4067
▁affiliate	-11.4067
▁contributing	-11.4067
▁correction	-11.4069
▁Die	-11.4073
▁Workers	-11.4074
▁Mus	-11.4075
▁Farm	-11.4077
runner	-11.4078
▁drafted	-11.4078
▁Andre	-11.408
rit	-11.4083
▁counties	-11.4088
▁confrontation	-11.4088
▁Ak	-11.4095
See	-11.4095
▁tro	-11.4096
▁Kit	-11.4097
fly	-11.4097
num	-11.4099
▁assert	-11.41
▁insist	-11.41
▁hail	-11.4102
▁identification	-11.4102
guard	-11.4103
▁resemble	-11.4103
..."	-11.4103
▁marine	-11.4104
▁VA	-11.4105
eth	-11.4105
▁anime	-11.4105
▁Consumer	-11.4107
▁mutual	-11.411
▁Cuban	-11.411
▁Buck	-11.411
▁Classic	-11.4111
▁styles	-11.4112
▁Blu	-11.4113
▁worthy	-11.4115
▁loving	-11.4118
nick	-11.4118
▁Charlotte	-11.412
▁deciding	-11.412
▁hammer	-11.4121
▁grace	-11.4121
▁Norway	-11.4121
▁Polish	-11.4122
▁defect	-11.4122
▁endorsement	-11.4122
▁triggered	-11.4123
▁bull	-11.4129
pop	-11.413
.[7]	-11.4134
▁defenders	-11.4135
▁Survey	-11.4138
arm	-11.4139
▁Anne	-11.4141
mount	-11.4143
▁authentic	-11.4143
▁reminded	-11.4144
▁explicit	-11.4145
▁panels	-11.4146
▁harmful	-11.4147
▁premiere	-11.4148
▁inspire	-11.4148
TF	-11.415
▁disorders	-11.415
▁Reform	-11.4153
through	-11.4155
▁Bangladesh	-11.4156
▁homicide	-11.4156
▁damaging	-11.4156
▁excitement	-11.4156
▁editing	-11.4157
oli	-11.416
RS	-11.4161
▁examination	-11.4163
ill	-11.4167
▁Gil	-11.4168
▁node	-11.4168
▁barriers	-11.4171
▁trusted	-11.4174
▁virtue	-11.4174
▁rage	-11.4174
▁foul	-11.4175
▁mm	-11.4176
▁photograph	-11.4176
▁hill	-11.4178
▁Fig	-11.4179
▁EP	-11.418
▁Sy	-11.4182
▁workforce	-11.4182
▁sweat	-11.4184
ito	-11.4185
▁decreased	-11.4186
RT	-11.4191
▁flesh	-11.4192
▁Gallery	-11.4192
▁Urban	-11.4192
▁conscious	-11.4192
▁batteries	-11.4193
▁feeding	-11.4193
▁nationalist	-11.4196
▁Glass	-11.4197
▁quotes	-11.4199
▁bust	-11.4199
▁Fisher	-11.42
▁proceed	-11.4201
UT	-11.4201
▁***	-11.4202
NET	-11.4203
~	-11.4203
ality	-11.4206
▁Give	-11.4206
▁variation	-11.4208
▁rifle	-11.4208
▁15-	-11.421
▁Electric	-11.421
▁clinic	-11.421
▁operates	-11.4211
▁drones	-11.4215
▁Planet	-11.4216
brand	-11.4217
▁avoided	-11.4218
▁departments	-11.4218
web	-11.4218
FS	-11.4218
race	-11.4218
▁assured	-11.4222
▁breed	-11.4223
▁infamous	-11.4228
▁licensing	-11.4228
▁longest	-11.4228
▁tendency	-11.4229
▁Fin	-11.4229
▁legendary	-11.4229
▁width	-11.423
▁Hit	-11.4231
▁Tam	-11.4231
Pa	-11.4232
late	-11.4233
▁ears	-11.4234
▁tables	-11.4238
▁offset	-11.4241
▁Au	-11.4244
▁Indians	-11.4245
▁Select	-11.4246
▁WikiLeaks	-11.4246
▁earliest	-11.4246
▁Arctic	-11.4247
▁admits	-11.4247
▁aesthetic	-11.4248
▁rig	-11.4248
▁metres	-11.4249
▁Warriors	-11.425
▁offshore	-11.425
▁withdrawal	-11.4251
▁arc	-11.4252
▁Carson	-11.4252
▁rat	-11.4253
▁sparked	-11.4253
ien	-11.4257
▁sooner	-11.4257
Na	-11.4257
▁AC	-11.4258
wick	-11.426
▁Bru	-11.426
KE	-11.4264
▁Lebanon	-11.4264
▁Memorial	-11.4264
▁interference	-11.4264
▁Rank	-11.4267
▁Child	-11.4268
▁distinguish	-11.427
▁pub	-11.4277
▁secured	-11.4278
osis	-11.4278
▁FL	-11.4279
kh	-11.428
▁hackers	-11.4281
▁Visit	-11.4283
sie	-11.4283
▁Nathan	-11.4284
▁wishes	-11.4285
att	-11.4285
▁Twin	-11.4286
▁Sunni	-11.4288
▁Sol	-11.4288
▁succeeded	-11.4288
▁24-	-11.429
▁difficulties	-11.4292
ART	-11.4292
▁const	-11.4295
▁Tap	-11.4296
▁Wait	-11.4296
▁till	-11.4298
oe	-11.4299
social	-11.4301
▁Assistant	-11.4301
▁acres	-11.4302
▁partisan	-11.4303
uc	-11.4303
nut	-11.4306
Can	-11.4308
Who	-11.4309
ello	-11.4312
▁proceedings	-11.4315
lands	-11.4316
▁Face	-11.4318
▁conclude	-11.432
▁Rs	-11.432
DR	-11.4322
▁Carlos	-11.4323
▁hopeful	-11.4324
▁layout	-11.4324
▁banner	-11.4324
▁planets	-11.4325
anna	-11.4325
▁conducting	-11.4326
iling	-11.4327
▁gro	-11.4329
▁Dur	-11.4331
▁protections	-11.4336
▁caution	-11.4336
▁rushed	-11.4337
powered	-11.434
▁timeline	-11.4343
▁Fat	-11.4345
IE	-11.4346
tim	-11.4349
string	-11.435
▁TA	-11.435
▁affair	-11.4357
▁lecture	-11.436
▁chips	-11.4361
bird	-11.4361
cell	-11.4363
▁suitable	-11.4364
▁Member	-11.4364
▁mountains	-11.4365
SO	-11.4365
▁habitat	-11.4365
▁traits	-11.4367
▁pp	-11.4367
▁transformed	-11.4368
▁chase	-11.437
▁Taiwan	-11.4374
▁Ebola	-11.4374
▁separation	-11.4374
▁garage	-11.4374
▁Finance	-11.4375
▁pilots	-11.4376
▁firearm	-11.4377
Ad	-11.4382
▁boards	-11.4384
▁athlete	-11.4386
▁mechanics	-11.439
ching	-11.4391
▁connecting	-11.4392
cli	-11.4393
▁Room	-11.4395
▁processor	-11.4395
▁sentences	-11.4395
▁floating	-11.4395
▁blogger	-11.4396
▁Large	-11.4396
▁donation	-11.4398
▁fr	-11.4399
▁Production	-11.44
▁adequate	-11.44
rup	-11.4402
▁belonging	-11.4402
▁exceed	-11.4405
oni	-11.4406
▁brains	-11.4406
▁por	-11.4407
four	-11.4408
ural	-11.4408
▁ADVERTISEMENT	-11.4411
▁nightmare	-11.4411
▁Transportation	-11.4412
▁minorities	-11.4412
▁Thor	-11.4413
▁taxpayer	-11.4414
▁Gay	-11.4415
▁continuous	-11.4419
▁Beer	-11.4422
▁Gru	-11.4422
EST	-11.4422
ologist	-11.4423
sub	-11.4424
CS	-11.4425
▁corresponding	-11.4428
▁societies	-11.4429
▁crude	-11.443
▁scholarship	-11.443
lash	-11.4432
▁Indonesia	-11.4433
▁exhibition	-11.4436
when	-11.4436
▁assertion	-11.4438
▁curb	-11.4443
▁Put	-11.4445
sic	-11.4446
▁Jen	-11.4446
burg	-11.445
▁dumb	-11.4451
▁instruction	-11.4452
-16	-11.4452
▁barrier	-11.4452
▁68	-11.4454
▁Pol	-11.4456
▁Flight	-11.4456
▁Bou	-11.4458
yne	-11.4458
▁grain	-11.4459
▁dated	-11.446
▁judicial	-11.4461
▁humor	-11.4462
▁Paper	-11.4463
▁regulators	-11.4464
▁aired	-11.4465
▁Double	-11.4467
pad	-11.4467
▁Cohen	-11.4468
▁Half	-11.4477
▁Create	-11.4477
▁BR	-11.448
▁laughing	-11.448
▁pressed	-11.4482
▁crying	-11.4482
▁query	-11.4483
▁Thunder	-11.4485
▁Travel	-11.4486
▁Release	-11.4486
▁dominate	-11.4486
▁tourists	-11.4487
▁environments	-11.4488
▁File	-11.4489
▁aftermath	-11.449
▁Neil	-11.4492
▁owe	-11.4493
▁unfortunate	-11.4493
▁Lisa	-11.4495
▁Members	-11.4496
▁trapped	-11.4496
▁Albert	-11.4496
▁Ol	-11.4498
▁arranged	-11.45
serv	-11.4502
▁cure	-11.4502
▁comparing	-11.4503
▁1983	-11.4505
▁Danny	-11.4506
▁EA	-11.4507
▁unveiled	-11.4509
▁Harrison	-11.4509
▁Universal	-11.451
▁sued	-11.4513
nder	-11.4516
▁appeals	-11.4519
▁Bon	-11.4521
▁doctrine	-11.4522
▁portfolio	-11.4522
▁indicating	-11.4522
▁Machine	-11.4522
▁jam	-11.4523
▁boring	-11.4523
▁shed	-11.4523
▁parameters	-11.4524
▁01	-11.4524
Qu	-11.4526
▁gifts	-11.4526
▁Girl	-11.4527
▁Nobody	-11.4527
▁Scout	-11.4528
TI	-11.4531
▁Angel	-11.4531
▁poison	-11.4535
rac	-11.4535
▁Advertisements	-11.4536
nation	-11.4536
▁audiences	-11.454
gno	-11.454
▁kiss	-11.4541
▁1982	-11.4542
▁Alt	-11.4542
▁lifted	-11.4544
▁(9	-11.4545
▁electro	-11.4546
▁villages	-11.4547
FI	-11.4548
▁Notes	-11.4549
▁Working	-11.455
active	-11.455
▁scenarios	-11.4551
▁monument	-11.4553
▁Alice	-11.4554
generation	-11.4555
▁matchup	-11.4558
▁screw	-11.4559
▁credibility	-11.4559
▁indigenous	-11.4559
▁essence	-11.4559
▁snake	-11.4559
▁Universe	-11.4559
▁garbage	-11.456
▁Morning	-11.456
▁1985	-11.4561
▁maker	-11.4561
▁marketplace	-11.4562
▁themes	-11.4562
▁bra	-11.4566
aff	-11.4567
▁(8	-11.4571
▁Row	-11.4571
lat	-11.4573
▁Connecticut	-11.4578
▁accommodate	-11.4578
▁embedded	-11.4578
▁urging	-11.4578
▁wrist	-11.4578
300	-11.4578
▁Swa	-11.4581
▁mothers	-11.4582
▁injection	-11.4582
▁insert	-11.4584
▁attacker	-11.4585
bon	-11.459
▁technically	-11.4595
▁echo	-11.4595
▁Kin	-11.4597
risk	-11.4597
▁Globe	-11.4597
▁gray	-11.4599
▁passport	-11.46
▁instruments	-11.4604
using	-11.4609
▁Kha	-11.4609
VA	-11.4609
▁harvest	-11.4611
security	-11.4615
▁invitation	-11.4616
▁Parenthood	-11.4616
▁beloved	-11.4616
▁twitter	-11.4616
pir	-11.4617
2,000	-11.462
una	-11.4624
▁BO	-11.4627
bie	-11.4628
▁thereby	-11.4629
▁determination	-11.463
▁Truth	-11.463
▁assuming	-11.463
▁operational	-11.4631
rod	-11.4632
ook	-11.4633
control	-11.4634
▁provincial	-11.4634
▁developments	-11.4638
▁Better	-11.4638
▁thumb	-11.464
▁Zi	-11.464
▁accountable	-11.4641
lift	-11.4647
▁Added	-11.4649
▁governing	-11.465
ces	-11.4653
▁Breitbart	-11.4653
▁Attack	-11.4655
.[8]	-11.4656
▁13.	-11.4656
tens	-11.4658
▁Picture	-11.4659
▁generating	-11.4662
▁==	-11.4662
ATE	-11.4663
hon	-11.4665
fix	-11.4667
▁investor	-11.4669
▁drain	-11.4671
▁tribute	-11.4671
▁royal	-11.4671
▁clause	-11.4672
▁Planned	-11.4673
▁bottles	-11.4674
▁Blair	-11.4674
▁sponsor	-11.4676
eal	-11.4678
▁rushing	-11.4679
▁Recently	-11.4679
▁Horn	-11.468
illo	-11.468
▁Juan	-11.468
▁clicking	-11.4683
▁sounded	-11.4684
▁slave	-11.4684
ova	-11.4685
▁vegetables	-11.4687
▁Zo	-11.469
▁Milwaukee	-11.4691
▁Simpson	-11.4691
▁arriving	-11.4691
▁density	-11.4691
▁wildlife	-11.4692
▁regards	-11.4694
nor	-11.4696
▁Jets	-11.4701
▁Qaeda	-11.4701
▁Rams	-11.4702
▁preference	-11.4703
▁mount	-11.4707
lov	-11.4707
cr	-11.4707
▁Brooks	-11.4708
▁chi	-11.4708
nell	-11.4709
Puerto	-11.4711
▁attach	-11.4712
▁cave	-11.4715
▁prohibited	-11.4721
▁pause	-11.4725
▁profession	-11.4725
change	-11.4728
tric	-11.4728
▁retire	-11.4729
▁recruiting	-11.473
sel	-11.4731
▁directions	-11.4731
rog	-11.4733
▁Ly	-11.4736
▁riders	-11.4736
▁Lab	-11.4737
▁certificate	-11.474
▁Andrea	-11.474
▁licensed	-11.4743
▁Bus	-11.4743
▁CL	-11.4744
▁justified	-11.4744
makers	-11.4744
▁counting	-11.4747
▁isolation	-11.4748
other	-11.4751
▁modules	-11.4751
▁breakdown	-11.4752
each	-11.4753
beat	-11.4753
▁threaten	-11.4754
▁alternatives	-11.4754
image	-11.4756
▁willingness	-11.4756
▁Wade	-11.4757
▁Zero	-11.4759
▁dirt	-11.476
umble	-11.4761
▁scam	-11.4764
ulate	-11.4765
▁Theatre	-11.4768
▁simulation	-11.4768
▁MMA	-11.4769
tis	-11.4771
▁chef	-11.4772
▁Sex	-11.4776
miss	-11.4776
▁posed	-11.4778
OM	-11.4779
▁Late	-11.478
▁Quick	-11.478
eva	-11.4782
aa	-11.4783
▁zombie	-11.4786
▁Either	-11.4786
▁MB	-11.4787
▁organizing	-11.4787
kins	-11.4787
▁Michelle	-11.4788
▁resign	-11.4788
▁Bulls	-11.4788
▁intersection	-11.4791
▁investing	-11.4791
▁4-	-11.4793
▁Sho	-11.4794
▁Mini	-11.4794
▁mob	-11.4798
▁Oak	-11.4805
▁economies	-11.4806
▁dubbed	-11.4806
▁broadband	-11.4806
▁Hero	-11.4807
▁spare	-11.4808
▁liberals	-11.4808
▁les	-11.481
▁Joined	-11.481
Ta	-11.4818
▁Forum	-11.4818
▁Students	-11.4819
▁Enter	-11.4826
▁Caption	-11.4826
▁firmly	-11.4827
▁champions	-11.4827
▁Ale	-11.4827
cen	-11.4828
tier	-11.483
rov	-11.4834
▁buttons	-11.4834
▁Communications	-11.4836
▁enhanced	-11.4836
▁Self	-11.4838
▁gl	-11.4838
▁TB	-11.4839
▁Effect	-11.4839
▁Server	-11.484
▁77	-11.4842
▁teenage	-11.4843
▁leather	-11.4844
▁slaughter	-11.4844
▁Target	-11.4844
▁inspection	-11.4849
▁slower	-11.4849
▁gravity	-11.4851
▁pleaded	-11.4851
DO	-11.4851
▁Stra	-11.4851
▁Gill	-11.4853
▁convenient	-11.4853
▁incentives	-11.4853
▁Map	-11.4854
ml	-11.4855
▁Bears	-11.4855
▁Phillips	-11.4857
udge	-11.4858
hat	-11.4858
▁Lane	-11.4861
▁binding	-11.4861
▁accounting	-11.4862
▁Mill	-11.4862
▁edited	-11.4862
▁WR	-11.4863
▁tobacco	-11.4863
▁Study	-11.4864
▁glance	-11.4864
▁Officials	-11.4867
▁destroying	-11.4868
▁disappointing	-11.4869
▁Scientists	-11.4874
▁Mason	-11.4874
▁Nas	-11.4875
▁700	-11.4876
▁Multi	-11.4876
▁Glenn	-11.4877
▁GO	-11.4877
ges	-11.4879
▁solidarity	-11.4883
▁wheels	-11.4884
▁geo	-11.4885
▁Homeland	-11.4886
wind	-11.4888
san	-11.489
▁Roll	-11.4891
▁meets	-11.4892
rc	-11.4893
▁Butler	-11.4894
▁Chan	-11.4897
▁jurisdiction	-11.4897
ATION	-11.4897
▁Learn	-11.4899
▁Beat	-11.49
IV	-11.4907
▁88	-11.4916
CE	-11.4918
▁Color	-11.4918
▁tra	-11.4919
▁Lar	-11.4921
LT	-11.4921
▁Imperial	-11.4921
▁crops	-11.4923
:15	-11.4924
▁Block	-11.4924
ille	-11.4924
▁nu	-11.4928
▁mph	-11.4928
▁Palin	-11.4928
▁911	-11.4929
cial	-11.4929
▁tactic	-11.4931
▁advisor	-11.4932
▁flowers	-11.4934
▁classical	-11.4934
▁abused	-11.4935
▁feared	-11.4936
▁disk	-11.4937
▁Got	-11.4937
▁shy	-11.494
▁routinely	-11.4941
▁landmark	-11.4943
▁sal	-11.4946
enter	-11.4946
▁sensor	-11.4948
LP	-11.4949
▁boyfriend	-11.4949
uni	-11.495
▁matched	-11.4951
▁dense	-11.4954
▁averaged	-11.4958
▁detected	-11.4958
▁Laura	-11.496
▁Vermont	-11.4961
▁Movie	-11.4961
▁Mall	-11.4964
▁Getting	-11.4965
▁wooden	-11.4966
/20	-11.4967
▁insists	-11.4968
▁compliance	-11.4968
▁5,000	-11.4968
▁advances	-11.497
tax	-11.4972
▁doubled	-11.4973
▁Py	-11.4973
ui	-11.4977
▁cocaine	-11.498
▁verdict	-11.498
▁Exchange	-11.498
From	-11.4983
cia	-11.4983
▁demonstrations	-11.4983
▁GT	-11.4983
▁casual	-11.4987
▁Rush	-11.4992
▁sponsored	-11.4993
▁TD	-11.4993
▁Cy	-11.4997
▁instinct	-11.4999
▁misleading	-11.4999
▁bankruptcy	-11.4999
▁bits	-11.5003
▁assignment	-11.5003
GE	-11.5005
▁);	-11.501
kel	-11.5011
▁sheer	-11.5014
▁wings	-11.5016
▁qualities	-11.5019
▁freak	-11.5019
▁relating	-11.5019
▁psychology	-11.5019
▁tribal	-11.5019
agon	-11.5019
▁1967	-11.5021
▁trademark	-11.5021
position	-11.5022
▁1940	-11.5022
▁flags	-11.5023
▁wondered	-11.5023
rop	-11.5028
▁mentally	-11.5029
▁fare	-11.503
▁worn	-11.5031
chin	-11.5037
▁buses	-11.5038
▁Clean	-11.504
▁1978	-11.504
▁Ah	-11.5043
▁lobbying	-11.5047
▁outline	-11.5048
▁69	-11.505
▁masses	-11.505
▁Ry	-11.5053
▁frustrating	-11.5058
▁hypothesis	-11.5058
▁permits	-11.5058
ibility	-11.5059
▁precious	-11.5059
▁preseason	-11.5061
cht	-11.5063
fra	-11.5064
▁Qu	-11.5066
▁Shah	-11.5066
▁0.3	-11.5066
▁draws	-11.5067
▁hence	-11.5068
▁Qui	-11.5073
▁desperately	-11.5074
▁Mah	-11.5074
gard	-11.5075
▁critique	-11.5078
▁obscure	-11.5078
▁Jefferson	-11.5078
▁hungry	-11.5079
▁grey	-11.508
▁interactive	-11.508
▁Highway	-11.5082
LO	-11.5085
▁approaching	-11.509
▁Coll	-11.5091
▁Tory	-11.5092
▁fu	-11.5094
▁workout	-11.5095
▁debates	-11.5095
gel	-11.5096
vision	-11.5096
▁Arch	-11.5097
▁Barbara	-11.5098
▁uncertain	-11.5098
▁screens	-11.51
▁Mul	-11.51
▁economists	-11.5101
sti	-11.5102
ois	-11.5103
▁darkness	-11.5106
▁treaty	-11.5106
▁fitness	-11.5106
▁statistical	-11.5109
▁pad	-11.5109
▁Sur	-11.511
▁Malaysia	-11.511
▁modify	-11.5111
▁gem	-11.5111
ago	-11.5115
▁advantages	-11.5116
▁GPS	-11.5117
▁Gabriel	-11.5117
▁screaming	-11.5117
▁arrangement	-11.5118
▁attitudes	-11.5118
▁negotiate	-11.5119
▁climbing	-11.5123
▁Challenge	-11.5125
▁vertical	-11.5126
Net	-11.5129
▁supportive	-11.5129
▁compiled	-11.513
▁reasoning	-11.513
lier	-11.5131
ente	-11.5136
▁epidemic	-11.5137
▁mathematical	-11.5137
▁literary	-11.5137
▁84	-11.5139
.25	-11.5141
▁Pack	-11.5141
UL	-11.5144
▁thoroughly	-11.5145
▁gamers	-11.5147
▁ruin	-11.5148
MD	-11.5151
▁CBC	-11.5151
▁dear	-11.5154
▁Chamber	-11.5157
▁Jennifer	-11.5157
▁Computer	-11.5157
▁Bradley	-11.5158
▁rec	-11.5159
aro	-11.5159
▁outright	-11.5159
▁islands	-11.516
held	-11.516
▁NDP	-11.5161
NI	-11.5162
▁MC	-11.5167
▁bearing	-11.5167
▁heal	-11.5169
▁Fish	-11.5169
▁Studios	-11.517
▁rocks	-11.5172
▁nominated	-11.5174
▁successor	-11.5174
▁Making	-11.5175
▁creativity	-11.5177
▁apology	-11.5177
▁qua	-11.5178
ffer	-11.5182
LC	-11.5182
▁bang	-11.5187
coin	-11.5193
▁Cop	-11.5196
▁Muhammad	-11.5197
▁reluctant	-11.5197
▁throws	-11.5197
▁deploy	-11.5203
▁receives	-11.5204
▁rendering	-11.5206
▁raped	-11.5207
▁tube	-11.5208
▁branches	-11.5208
ech	-11.521
▁Glen	-11.521
▁lyrics	-11.5213
bul	-11.5216
ider	-11.5216
▁embassy	-11.5217
▁tattoo	-11.5217
▁believing	-11.5217
▁silly	-11.5217
▁Lynch	-11.5217
▁Bee	-11.5219
▁Cool	-11.5219
▁Value	-11.5221
▁rhythm	-11.5222
▁exchanges	-11.5225
▁purchases	-11.5226
▁pants	-11.5229
▁corporation	-11.523
▁Fun	-11.5232
();	-11.5233
break	-11.5235
▁convincing	-11.5237
▁genius	-11.5237
▁Wallace	-11.5237
▁float	-11.5238
▁trafficking	-11.5239
▁apologize	-11.5239
▁Sab	-11.524
▁TE	-11.524
Hey	-11.524
▁mentor	-11.524
▁pour	-11.5241
▁satisfied	-11.5244
TU	-11.5244
▁pitcher	-11.5247
▁Raiders	-11.5249
cost	-11.525
▁eliminated	-11.5251
cum	-11.5254
mic	-11.5256
▁introducing	-11.5257
▁Culture	-11.5257
▁Newton	-11.5257
▁inmates	-11.5258
▁directory	-11.5259
▁null	-11.526
▁Castle	-11.526
bell	-11.5263
black	-11.5264
▁Hay	-11.5265
▁profound	-11.5267
▁communist	-11.5267
▁severely	-11.5268
▁biology	-11.527
▁abandon	-11.5273
▁''	-11.5274
▁magnitude	-11.5277
▁delicious	-11.5277
▁Deal	-11.5278
▁1976	-11.5279
▁fame	-11.5279
▁Mitch	-11.528
Ja	-11.5286
▁Reed	-11.529
▁User	-11.529
▁Rev	-11.5291
▁creators	-11.5291
▁Years	-11.5293
▁skilled	-11.5295
▁spectacular	-11.5297
▁74	-11.5297
▁quantum	-11.5297
▁collapsed	-11.5299
400	-11.5299
tors	-11.5299
▁Jamie	-11.5302
▁Zen	-11.5303
▁blank	-11.5305
▁farms	-11.5306
▁hung	-11.5307
▁“[	-11.531
▁lacking	-11.5311
▁confront	-11.5311
iti	-11.5311
▁shaped	-11.5314
▁tin	-11.5314
▁BJP	-11.5317
▁dioxide	-11.5317
4,	-11.5319
▁1968	-11.5319
system	-11.532
eon	-11.532
▁counterparts	-11.5322
▁Cover	-11.5322
▁mut	-11.5323
driven	-11.5324
ulated	-11.5325
▁touchdowns	-11.5328
▁3,000	-11.5328
▁lengthy	-11.5331
▁appealing	-11.5333
▁Researchers	-11.5336
▁Spi	-11.5337
▁locker	-11.5337
▁matching	-11.5337
▁REUTERS	-11.5337
▁Shield	-11.5337
▁straightforward	-11.5337
▁Para	-11.5337
▁Shop	-11.5338
▁denying	-11.5339
▁18-	-11.5339
▁Rat	-11.534
▁Village	-11.534
▁Wii	-11.5341
▁Current	-11.5341
▁underway	-11.5341
▁meals	-11.5342
▁Mai	-11.5343
▁ES	-11.5345
▁180	-11.5345
▁Regional	-11.5346
▁Bros	-11.5349
▁pur	-11.5352
▁hearts	-11.5353
▁organize	-11.5354
▁3)	-11.5354
inder	-11.5355
▁dock	-11.5355
▁victories	-11.5358
▁colleges	-11.5358
▁relies	-11.5362
!!!	-11.5362
degree	-11.5365
▁scroll	-11.5365
▁chemistry	-11.5365
cel	-11.5367
▁cats	-11.5372
▁sexuality	-11.5372
▁borrow	-11.5372
▁Dal	-11.5375
▁boots	-11.5375
▁pu	-11.5377
backed	-11.5377
▁Criminal	-11.5378
▁bipartisan	-11.5378
▁loyalty	-11.5379
▁Owen	-11.538
▁Spec	-11.5381
grade	-11.5384
proof	-11.5386
▁Kate	-11.5386
clo	-11.5387
▁Hur	-11.5391
▁endorsed	-11.5391
▁authorized	-11.5392
▁Koch	-11.5393
▁teens	-11.5396
ule	-11.5396
tha	-11.5396
▁editors	-11.5397
▁playback	-11.5397
▁Birmingham	-11.5398
ela	-11.5398
▁specified	-11.5398
▁practically	-11.5402
▁shine	-11.5402
▁intentions	-11.5403
gna	-11.5403
▁decks	-11.5405
▁origins	-11.5408
lines	-11.5408
▁polar	-11.541
▁Product	-11.5411
▁commented	-11.5412
▁avoiding	-11.5412
▁Less	-11.5414
▁LG	-11.5416
▁1.2	-11.5418
▁Soccer	-11.5418
▁invented	-11.5419
▁problematic	-11.542
UM	-11.5422
▁delays	-11.5422
▁mill	-11.5423
▁Original	-11.5424
▁automated	-11.5426
▁unity	-11.5428
▁Cost	-11.5428
...”	-11.5428
bla	-11.5431
▁arrow	-11.5433
▁pal	-11.5437
▁Argentina	-11.5439
▁Software	-11.5439
▁paragraph	-11.5439
▁Sandy	-11.5439
▁Strong	-11.5439
▁Tigers	-11.544
▁Resources	-11.5442
▁Count	-11.5442
8,000	-11.5444
Com	-11.5444
▁buffer	-11.5446
▁Xi	-11.5448
▁holy	-11.5451
▁agrees	-11.5451
▁Sox	-11.5458
▁searches	-11.5458
ista	-11.546
craft	-11.546
bach	-11.546
▁Zone	-11.5463
▁Julian	-11.5465
▁SM	-11.5467
▁sons	-11.5469
▁priest	-11.5469
▁newest	-11.5471
OU	-11.5472
▁altered	-11.5474
▁PAC	-11.5476
▁batch	-11.5476
__	-11.5478
kind	-11.5479
▁Verizon	-11.548
▁declining	-11.548
▁Bishop	-11.548
▁16-	-11.5481
public	-11.5482
stock	-11.5484
▁aide	-11.5484
▁financing	-11.5485
▁smartphones	-11.5487
▁RB	-11.549
▁Brewing	-11.5491
▁4:	-11.5492
▁affecting	-11.5494
▁Nixon	-11.55
▁Seahawks	-11.55
▁correspondent	-11.5501
▁Log	-11.5502
▁Zoo	-11.5504
▁detection	-11.5505
▁possess	-11.5506
▁1920	-11.5506
▁Kat	-11.5507
-14	-11.5507
bridge	-11.5508
▁rankings	-11.5508
▁nurse	-11.5509
▁establishing	-11.5514
▁cha	-11.5514
▁NPR	-11.5518
▁Speed	-11.552
▁weakness	-11.552
▁thirty	-11.5521
▁Richmond	-11.5521
▁scare	-11.5522
thirds	-11.5522
▁shifts	-11.5522
▁Monster	-11.5523
▁farming	-11.5525
▁tactical	-11.5527
rio	-11.5529
NG	-11.5531
Ka	-11.5531
▁Nat	-11.5534
HL	-11.5535
▁Mean	-11.5536
▁forming	-11.5539
standing	-11.5541
▁Griffin	-11.5541
▁territories	-11.5541
▁Subject	-11.5542
nne	-11.5544
▁Gene	-11.5546
▁Fight	-11.5546
▁Upon	-11.5546
▁Episode	-11.5547
▁besides	-11.5549
▁analyze	-11.5551
▁bath	-11.5557
▁Vikings	-11.556
▁Kan	-11.5561
▁collision	-11.5562
▁navigate	-11.5562
▁portrait	-11.5562
▁Mueller	-11.5562
▁Dennis	-11.5562
▁GE	-11.5565
▁Palestine	-11.5568
▁Stay	-11.5568
final	-11.5572
▁incentive	-11.5573
ifies	-11.5575
pel	-11.5578
▁shifting	-11.5579
▁Stan	-11.558
▁predictions	-11.558
▁cultures	-11.558
▁Bryan	-11.5583
▁illusion	-11.5583
▁Silicon	-11.5583
▁fundraising	-11.5583
▁intimate	-11.5583
▁rubber	-11.5583
▁Sel	-11.5584
▁{\	-11.5586
▁persistent	-11.5587
▁founding	-11.5588
▁beast	-11.5591
▁lasted	-11.5591
▁musicians	-11.5591
comp	-11.5593
▁duo	-11.5597
▁grows	-11.5598
▁blade	-11.5601
▁preliminary	-11.5604
char	-11.5604
▁mounted	-11.5605
mond	-11.5605
▁Forces	-11.5606
▁pastor	-11.5607
▁frankly	-11.5607
▁veto	-11.5608
▁Apparently	-11.5608
Because	-11.5609
sexual	-11.561
▁traditions	-11.5612
▁lighter	-11.5613
▁medication	-11.5617
▁utter	-11.5621
▁recalls	-11.5622
▁specify	-11.5622
▁risen	-11.5623
▁Clarke	-11.5624
▁confronted	-11.5624
▁swimming	-11.5624
▁Shar	-11.5624
▁Rachel	-11.5625
▁queue	-11.5626
▁1981	-11.5626
▁donate	-11.5626
▁cab	-11.5629
▁Motor	-11.5636
▁pale	-11.5639
▁78	-11.564
uction	-11.5641
▁cinema	-11.5644
▁eighth	-11.5645
cil	-11.5645
▁thrive	-11.5645
▁Metal	-11.5646
itu	-11.5646
▁occurring	-11.5647
▁1973	-11.5647
loc	-11.5649
▁failures	-11.5651
▁preferences	-11.5656
▁Hopefully	-11.5656
▁organisations	-11.5657
▁cor	-11.5657
▁escaped	-11.566
chu	-11.5661
▁purchasing	-11.5666
▁Voice	-11.5667
▁Okay	-11.5667
▁builds	-11.5668
▁jacket	-11.5668
▁sl	-11.5669
▁calculate	-11.5669
▁Bobby	-11.567
▁Steel	-11.5673
▁Julie	-11.5673
OD	-11.5675
▁Chile	-11.5675
tine	-11.5676
▁ir	-11.5676
▁Hide	-11.5679
▁costly	-11.5679
▁Austria	-11.568
BC	-11.5683
Mon	-11.5685
▁Calgary	-11.5687
▁warfare	-11.5687
▁Dublin	-11.5688
▁mock	-11.5688
▁binary	-11.5689
▁distribute	-11.569
▁Sri	-11.5691
▁tolerance	-11.5691
itter	-11.5692
▁merit	-11.5692
lli	-11.5693
▁ft	-11.5696
PH	-11.5699
▁workshop	-11.5699
Har	-11.5703
▁Mom	-11.5705
▁rep	-11.5705
▁PO	-11.5706
▁Spencer	-11.5708
▁correlation	-11.5708
▁likelihood	-11.5708
▁memorial	-11.5708
▁sacred	-11.5708
▁Tree	-11.5709
▁Legal	-11.571
ident	-11.5711
▁variations	-11.5711
lessness	-11.5711
▁bloody	-11.5711
▁Nova	-11.5712
▁3.5	-11.5721
('	-11.5724
▁expressing	-11.5727
Sp	-11.5729
▁treatments	-11.5729
▁Enterprise	-11.5729
▁beneficial	-11.5729
▁Bennett	-11.5729
▁considerably	-11.5732
▁albums	-11.5733
▁Jesse	-11.5734
▁kicking	-11.5734
▁implementing	-11.5735
▁Fame	-11.5735
▁Lib	-11.5735
▁breathing	-11.5737
yes	-11.5739
ridge	-11.5739
▁cord	-11.574
rad	-11.5741
▁stocks	-11.5744
gn	-11.5747
▁Tweet	-11.575
▁pleasant	-11.575
▁skeptical	-11.575
▁Creek	-11.5751
▁cease	-11.5754
▁counted	-11.5754
▁sends	-11.5756
▁rub	-11.5757
tant	-11.576
nz	-11.5764
agh	-11.5768
▁restrict	-11.5769
▁vulnerability	-11.5771
▁Jessica	-11.5771
▁interfere	-11.5771
▁Samuel	-11.5771
ij	-11.5774
▁artwork	-11.5774
city	-11.5775
▁Nearly	-11.5779
▁ser	-11.5779
▁2007.	-11.578
▁accurately	-11.578
▁lesser	-11.5781
CT	-11.5781
▁Rico	-11.5782
▁privately	-11.5782
▁Edge	-11.5783
▁helicopter	-11.5788
▁Jar	-11.5788
▁Sport	-11.5791
▁skull	-11.5792
▁slogan	-11.5792
▁whilst	-11.5792
▁directors	-11.5793
▁railway	-11.5795
▁Az	-11.5796
awa	-11.5803
▁Pete	-11.5804
▁exceptional	-11.5809
▁daughters	-11.581
iri	-11.581
▁shoulders	-11.5811
▁enabling	-11.5813
▁unlimited	-11.5814
pr	-11.5815
▁charts	-11.5816
▁Barr	-11.5816
▁71	-11.5817
dging	-11.582
▁jumping	-11.5822
CI	-11.5825
mod	-11.5825
▁rated	-11.5826
▁guilt	-11.5826
▁0.4	-11.5827
▁incorporate	-11.5827
ander	-11.5828
sec	-11.5832
lb	-11.5834
▁suppress	-11.5834
▁ammunition	-11.5835
▁galaxy	-11.5835
▁pistol	-11.5835
▁Rhode	-11.5835
lton	-11.5835
▁invention	-11.5835
▁monsters	-11.5835
▁Montana	-11.5836
▁1975	-11.5838
▁employ	-11.5838
▁mon	-11.5839
▁Lauren	-11.584
▁Jobs	-11.584
▁freeze	-11.5842
woman	-11.5846
▁dash	-11.5847
▁String	-11.5847
▁afterwards	-11.5851
osa	-11.5851
▁cycling	-11.5851
▁03	-11.5851
▁Weiss	-11.5852
▁Ethereum	-11.5856
▁condo	-11.5857
ink	-11.5858
▁SF	-11.5858
▁cheer	-11.5859
udi	-11.586
▁battlefield	-11.5861
▁Tru	-11.5862
▁ERA	-11.5863
tting	-11.5864
▁Engineering	-11.5864
arch	-11.5865
aya	-11.587
▁Gates	-11.587
hoe	-11.587
gli	-11.5872
▁genuinely	-11.5872
▁obligation	-11.5875
▁outer	-11.5876
wn	-11.5876
▁tribe	-11.5876
▁2018.	-11.5877
▁psychologist	-11.5877
▁grandfather	-11.5878
▁governance	-11.5878
▁midnight	-11.5878
▁Single	-11.5879
▁Ay	-11.5883
▁Peterson	-11.5884
▁cleaning	-11.5886
stead	-11.5889
▁mild	-11.5889
▁5%	-11.589
▁observers	-11.5897
▁enables	-11.5898
▁celebrating	-11.5899
▁Electronic	-11.5899
▁Amy	-11.59
▁Dawn	-11.5903
cru	-11.5907
900	-11.5907
▁Stat	-11.5908
▁tide	-11.5908
fort	-11.5915
▁dude	-11.5915
ddy	-11.5917
▁Mix	-11.5919
▁crashed	-11.592
▁cancelled	-11.5921
▁Gal	-11.5922
▁Representatives	-11.5923
▁Outside	-11.5924
▁Sep	-11.5925
interest	-11.5927
aid	-11.5929
empt	-11.5929
▁Strike	-11.5932
FT	-11.5933
▁86	-11.5935
flow	-11.5936
▁transcript	-11.5939
▁rope	-11.5939
▁wrestling	-11.5942
▁HTTP	-11.5942
▁persist	-11.5943
▁Movement	-11.5943
▁copper	-11.5945
ND	-11.5946
▁Leave	-11.5946
▁coordinate	-11.5946
▁NHS	-11.5947
▁decides	-11.5948
▁GMT	-11.5948
▁shootings	-11.5948
▁cage	-11.5949
View	-11.595
▁Musk	-11.595
fit	-11.5954
RB	-11.5956
wal	-11.5956
▁82	-11.5957
kg	-11.5958
▁Invalid	-11.5961
▁Brit	-11.5962
▁attributes	-11.5962
▁aging	-11.5962
▁Mohammed	-11.5963
▁Denmark	-11.5963
▁airplane	-11.5964
▁Ghost	-11.5966
crat	-11.5967
▁73	-11.5967
▁adjusted	-11.5968
last	-11.5968
▁beside	-11.597
▁subway	-11.597
▁accidentally	-11.597
▁Politics	-11.5971
▁oversee	-11.5971
▁14.	-11.5973
▁Him	-11.5974
eem	-11.5975
▁Dia	-11.5977
tta	-11.5978
EG	-11.5983
▁speeches	-11.5985
▁Hockey	-11.5985
▁grocery	-11.5985
▁vessel	-11.5985
▁Foster	-11.5986
▁catching	-11.5986
ré	-11.5986
rp	-11.599
▁exemption	-11.5991
DI	-11.5994
▁max	-11.5994
▁Environment	-11.5995
▁Arabic	-11.5997
hack	-11.5997
▁imagined	-11.5997
building	-11.6
▁cargo	-11.6
▁Islands	-11.6001
▁Mega	-11.6002
▁warnings	-11.6002
▁Palm	-11.6004
vie	-11.6005
▁02	-11.6005
▁glimpse	-11.6006
▁navigation	-11.6006
▁supervisor	-11.6006
▁misconduct	-11.6006
▁Zu	-11.6007
▁Palace	-11.6007
▁poem	-11.6008
▁assassination	-11.6009
▁Brain	-11.601
▁scout	-11.6011
7,000	-11.6011
▁revised	-11.6012
▁hostage	-11.6013
▁laughed	-11.6014
▁dismiss	-11.6014
wire	-11.6016
▁hunger	-11.6017
▁Tur	-11.6018
iko	-11.602
▁queen	-11.6021
▁$25	-11.6022
▁translated	-11.6023
▁attribute	-11.6023
▁cute	-11.6025
▁Sciences	-11.6025
▁texts	-11.6026
alia	-11.6027
▁Adventure	-11.6028
▁confusing	-11.6028
▁acute	-11.6028
▁Thailand	-11.6029
▁1972	-11.603
▁regain	-11.603
▁limiting	-11.6033
▁theatre	-11.6034
hou	-11.6038
▁tourist	-11.6038
▁signatures	-11.6039
rium	-11.604
▁Def	-11.6043
▁101	-11.6043
▁skip	-11.6044
▁Girls	-11.6044
imon	-11.6045
ying	-11.6047
▁Affordable	-11.6049
▁dancing	-11.6049
▁precedent	-11.605
▁spirits	-11.6051
▁switched	-11.6051
▁BB	-11.6054
▁accountability	-11.6055
▁wherever	-11.6057
▁Ultimately	-11.6058
▁relate	-11.6059
▁prey	-11.6059
dra	-11.6066
▁puck	-11.6066
▁strictly	-11.6067
▁CI	-11.6068
▁Feel	-11.6068
▁clash	-11.607
▁educated	-11.607
AND	-11.607
▁enthusiasm	-11.6071
▁Analysis	-11.6071
▁MLB	-11.6072
UP	-11.6074
nik	-11.6074
RG	-11.6074
▁specialist	-11.6075
▁disclose	-11.6076
▁demonstrates	-11.6077
▁spite	-11.6077
▁crowds	-11.6079
▁Fact	-11.6079
▁Fourth	-11.6086
aba	-11.6087
ounce	-11.609
▁lined	-11.609
▁swap	-11.6092
▁cautious	-11.6093
▁consumed	-11.6094
▁<<	-11.6095
▁Nancy	-11.6095
▁militant	-11.6096
Su	-11.6097
▁embarrassing	-11.6097
▁Wonder	-11.61
▁CON	-11.61
▁Shaw	-11.61
▁independently	-11.6101
▁manifest	-11.6102
IST	-11.6103
▁novels	-11.6104
▁upload	-11.6104
organ	-11.6104
CR	-11.6107
pol	-11.6108
ache	-11.6111
▁syndrome	-11.6115
▁Taking	-11.6116
▁verbal	-11.6117
?!	-11.6118
▁sensors	-11.6119
MI	-11.6119
▁2-	-11.612
sil	-11.612
**	-11.612
▁25-	-11.6122
-17	-11.6124
▁dev	-11.6125
▁renewed	-11.6128
▁ports	-11.6129
▁Letter	-11.6132
PD	-11.6134
▁Hungary	-11.6137
▁kernel	-11.6137
▁vacuum	-11.6137
▁holders	-11.6137
▁brew	-11.6137
▁dissent	-11.6138
▁nodes	-11.6138
▁tribes	-11.6139
▁Agent	-11.6139
▁Really	-11.6143
Muslim	-11.6146
match	-11.6147
▁formerly	-11.6151
▁Nigeria	-11.6151
▁hype	-11.6152
▁bay	-11.6157
▁corridor	-11.6159
▁Nashville	-11.6159
yu	-11.616
▁integrate	-11.6163
▁Chase	-11.6164
▁ok	-11.6164
▁Str	-11.6171
▁teammate	-11.6172
tig	-11.6174
▁glasses	-11.6174
▁MIT	-11.6176
/11	-11.6179
▁Syn	-11.618
▁WATCH	-11.6181
▁prejudice	-11.6181
▁accusing	-11.6181
CP	-11.6181
▁hydrogen	-11.6181
▁honey	-11.6182
▁Throughout	-11.6182
▁processed	-11.6185
▁analyses	-11.6185
best	-11.6185
▁partial	-11.6187
▁healing	-11.6188
▁permanently	-11.6189
▁pr	-11.619
▁favorable	-11.6193
Even	-11.6199
▁Qua	-11.6203
▁satisfaction	-11.6203
▁Hawk	-11.6203
hur	-11.6203
▁blanket	-11.6207
▁evolve	-11.6207
TION	-11.621
▁Clo	-11.621
stan	-11.621
▁ego	-11.6213
emi	-11.6214
▁slaves	-11.6215
▁pronounced	-11.6215
▁prevention	-11.6216
▁offenders	-11.6218
eli	-11.6221
▁mobility	-11.6225
▁Jeffrey	-11.6225
▁gu	-11.6226
▁broker	-11.6227
▁sometime	-11.6227
FL	-11.623
▁photography	-11.6235
▁tuned	-11.6235
▁theoretical	-11.6236
lich	-11.6238
▁contents	-11.6242
▁vent	-11.6242
▁surveys	-11.6243
shirt	-11.6244
▁Blues	-11.6246
LL	-11.6247
mil	-11.6247
▁Heritage	-11.6247
▁overhaul	-11.6247
▁statute	-11.6247
▁Panthers	-11.6247
▁boycott	-11.6247
▁Housing	-11.6248
▁shortage	-11.6248
▁shipped	-11.6249
▁spotlight	-11.6249
▁encountered	-11.625
▁Private	-11.6252
▁fortunate	-11.6254
▁filming	-11.6255
▁locally	-11.6258
https	-11.6258
going	-11.6262
▁Student	-11.6262
▁lovely	-11.6262
eye	-11.6262
hir	-11.6263
▁WA	-11.6263
▁gallery	-11.6269
PR	-11.6272
▁utilize	-11.6274
▁midst	-11.6275
▁labeled	-11.6275
eller	-11.6276
▁von	-11.6276
▁dragon	-11.6279
▁Fighter	-11.628
▁Stu	-11.6286
▁algorithms	-11.6287
▁Process	-11.6289
▁Additional	-11.6289
▁advise	-11.629
▁HR	-11.629
▁blown	-11.6291
[2]	-11.6291
▁vitamin	-11.6291
▁Fear	-11.6293
▁readily	-11.6294
▁felony	-11.6294
▁Orthodox	-11.6298
▁frames	-11.6299
▁char	-11.6299
▁EV	-11.6299
hara	-11.63
especially	-11.6301
Ar	-11.6303
▁gods	-11.6304
▁defining	-11.6304
▁Lost	-11.6304
▁paths	-11.6305
▁Kent	-11.6309
▁Build	-11.631
▁ter	-11.631
▁Rain	-11.6311
db	-11.6311
▁Superman	-11.6311
▁verse	-11.6312
▁manipulation	-11.6314
▁clarify	-11.6314
▁mortality	-11.6314
IVE	-11.6315
Men	-11.6315
suit	-11.6316
▁Germans	-11.6317
phi	-11.632
▁Cash	-11.632
Qaeda	-11.6324
door	-11.6324
▁belongs	-11.6327
▁Tel	-11.6329
▁marginal	-11.6334
▁anonymity	-11.6336
▁refusal	-11.6336
▁whatsoever	-11.6336
▁clarity	-11.6336
▁laboratory	-11.6336
dimensional	-11.6337
current	-11.6339
▁lethal	-11.6341
▁Rule	-11.6344
▁artistic	-11.6345
▁historian	-11.6345
rise	-11.6345
▁corners	-11.6349
▁Mont	-11.6352
▁30%	-11.6354
▁mold	-11.6355
roy	-11.6356
▁::	-11.6357
▁negotiating	-11.6358
▁Czech	-11.6358
mie	-11.6359
▁exercises	-11.6365
ila	-11.6367
▁Goldman	-11.6368
▁recruit	-11.6369
▁Continued	-11.637
▁PDF	-11.6371
▁Sn	-11.6378
▁outlined	-11.6379
▁absent	-11.638
▁1%	-11.638
▁bolster	-11.6381
▁determining	-11.6381
abi	-11.6382
▁passive	-11.6382
Cl	-11.6383
third	-11.6383
▁Cape	-11.6385
▁Ala	-11.6385
▁Ny	-11.6389
▁tourism	-11.6389
▁starters	-11.6391
▁throat	-11.6392
▁boats	-11.6394
▁Leon	-11.6395
too	-11.6396
▁mor	-11.6398
His	-11.6398
▁PP	-11.6399
▁Diamond	-11.6403
▁bracket	-11.6403
▁iTunes	-11.6403
▁neural	-11.6403
hall	-11.6404
▁Drew	-11.6406
▁extends	-11.6407
State	-11.6409
▁Often	-11.6409
▁Starting	-11.6409
▁beam	-11.641
▁elevated	-11.641
▁exceptions	-11.6413
▁assumptions	-11.6415
▁Mann	-11.6418
OUR	-11.6418
quest	-11.6418
▁Billy	-11.6419
Option	-11.6424
▁SB	-11.6424
▁Raj	-11.6424
▁0.00	-11.6426
▁ignoring	-11.6426
▁Pokémon	-11.6426
▁TODAY	-11.6426
▁drift	-11.6426
▁1974	-11.6427
▁obligations	-11.6428
▁Anyway	-11.6429
▁outlet	-11.6429
Up	-11.6429
▁una	-11.6432
▁CSS	-11.6434
▁dam	-11.6435
feld	-11.6437
dicat	-11.6437
▁$12	-11.6437
▁revelation	-11.6437
▁vague	-11.6438
▁coastal	-11.6439
▁pole	-11.6441
ume	-11.6442
▁leaks	-11.6443
▁solved	-11.6443
▁recommendation	-11.6444
▁sci	-11.6445
[6]	-11.6446
Get	-11.6446
▁hurricane	-11.6448
▁Immigration	-11.6448
▁Sierra	-11.6448
▁minimize	-11.6448
▁Defence	-11.6449
▁aliens	-11.6449
▁MVP	-11.6449
▁Kh	-11.6452
▁edges	-11.6453
▁homosexual	-11.6454
▁understands	-11.6455
oth	-11.6458
▁deleted	-11.6463
▁norm	-11.6465
rill	-11.6466
ska	-11.6466
▁shoe	-11.6468
▁tweak	-11.6468
▁intake	-11.647
▁Nebraska	-11.6471
▁diabetes	-11.6471
▁McCarthy	-11.6471
▁1969	-11.6473
▁Fen	-11.6474
▁Tal	-11.6479
▁labels	-11.6479
▁Sat	-11.648
1,000	-11.6481
▁pitching	-11.6482
▁laying	-11.6482
▁forums	-11.6482
▁contributor	-11.6483
▁Actually	-11.6483
▁mag	-11.6484
▁font	-11.6485
php	-11.6487
▁Nar	-11.6487
▁measurements	-11.649
para	-11.6492
aga	-11.6493
▁EM	-11.6494
▁lion	-11.6495
▁unconscious	-11.6495
▁proving	-11.6496
▁Fortunately	-11.6498
scape	-11.65
▁compatible	-11.6501
▁aggression	-11.6502
▁teenagers	-11.6504
yr	-11.6504
▁utterly	-11.6505
function	-11.6505
▁premier	-11.6507
▁pathway	-11.6507
Every	-11.6507
▁warn	-11.6508
[1]	-11.6509
▁UP	-11.6511
lim	-11.6513
▁cow	-11.6514
▁ko	-11.6515
aria	-11.6516
▁Ubuntu	-11.6516
▁achieving	-11.6516
▁diamond	-11.6516
▁Broadway	-11.6517
▁humble	-11.6517
▁fires	-11.6517
▁contacts	-11.6518
▁committing	-11.6519
▁interim	-11.6519
▁Cardinals	-11.6521
▁horn	-11.6523
▁optional	-11.6523
▁palm	-11.6531
▁ALL	-11.6533
▁Liberals	-11.6536
▁makeup	-11.6539
▁Portugal	-11.6539
▁twelve	-11.6539
▁Erdogan	-11.6539
▁facial	-11.6539
▁(11	-11.654
▁Eddie	-11.654
▁businessman	-11.6541
acre	-11.6541
▁neutrality	-11.6542
▁Prison	-11.6542
▁substantially	-11.6542
▁Beast	-11.6543
▁flooding	-11.6544
▁Few	-11.6545
▁forests	-11.6545
▁aboard	-11.6545
▁unacceptable	-11.6545
▁Regardless	-11.6545
RNA	-11.6547
▁useless	-11.6548
atic	-11.6552
OO	-11.6556
▁fond	-11.6556
▁CF	-11.6556
▁Eat	-11.656
9,000	-11.6561
▁Edmonton	-11.6562
▁maneuver	-11.6562
▁licence	-11.6562
▁Rating	-11.6563
▁Med	-11.6563
▁Br	-11.6564
scription	-11.6565
hot	-11.6567
▁Kris	-11.6568
ether	-11.6568
▁folk	-11.6569
mato	-11.657
▁chill	-11.6572
▁notorious	-11.6574
▁Kid	-11.658
▁heated	-11.658
live	-11.6581
▁$30	-11.6581
:45	-11.6583
▁Ask	-11.6584
▁convenience	-11.6585
▁underneath	-11.6585
▁grandmother	-11.6585
▁encryption	-11.6585
▁modes	-11.6585
▁toggle	-11.6586
▁hardest	-11.6586
▁rebuild	-11.6586
▁cents	-11.6586
▁bucket	-11.6587
▁balloon	-11.6587
▁inspector	-11.6588
▁euros	-11.659
▁Nobel	-11.6591
CL	-11.6591
Da	-11.6592
▁40%	-11.6592
Fe	-11.6593
▁$500	-11.6594
▁stranger	-11.6595
science	-11.6596
▁inherent	-11.6597
▁horses	-11.6598
▁Hills	-11.6598
did	-11.6599
/5	-11.66
▁uncle	-11.6603
▁carriers	-11.6603
▁protective	-11.6603
uv	-11.6605
▁Cut	-11.6607
▁inevitably	-11.6608
nish	-11.6608
▁homosexuality	-11.6609
▁morph	-11.6609
▁bolt	-11.661
▁killings	-11.661
▁curse	-11.6614
.[10]	-11.6615
dent	-11.6622
▁portrayed	-11.6622
dog	-11.6627
▁entrepreneurs	-11.6628
RM	-11.6628
rain	-11.6629
vat	-11.6629
▁Via	-11.663
▁triumph	-11.663
▁Halloween	-11.6631
▁malicious	-11.6631
▁surplus	-11.6631
May	-11.6632
▁shutdown	-11.6632
▁bailout	-11.6634
▁Tribune	-11.6636
etti	-11.6636
▁Wang	-11.6637
▁restored	-11.6639
▁Commerce	-11.6639
court	-11.6639
▁tablets	-11.6639
paid	-11.664
▁Spa	-11.6641
GO	-11.6642
▁sizes	-11.6642
▁albeit	-11.6643
▁toys	-11.6643
nia	-11.6644
▁neurons	-11.6644
GS	-11.6645
▁freshman	-11.6646
working	-11.6647
▁RAM	-11.6648
▁Someone	-11.6649
▁1.1	-11.6649
▁analyzed	-11.665
▁Comics	-11.6651
▁Uni	-11.6652
▁Nexus	-11.6654
▁Tehran	-11.6654
▁Conclusion	-11.6654
▁Focus	-11.6654
dos	-11.6655
▁LLC	-11.6656
▁Eli	-11.6659
▁disruption	-11.666
▁newer	-11.666
▁Yankees	-11.6661
▁Packers	-11.6661
▁Advanced	-11.6662
▁Sullivan	-11.6663
▁SU	-11.6664
factor	-11.6665
▁HBO	-11.6665
▁flaws	-11.6666
bag	-11.6671
▁stark	-11.6672
▁bullets	-11.6675
▁Systems	-11.6676
here	-11.6676
▁dignity	-11.6677
▁hormone	-11.6677
▁steadily	-11.6677
▁consistency	-11.6677
around	-11.6677
▁Baseball	-11.6677
ense	-11.6677
stick	-11.6679
tv	-11.6679
▁stealing	-11.668
▁Colin	-11.668
▁scream	-11.6681
▁stepping	-11.6684
[3]	-11.6684
▁compiler	-11.6686
IGHT	-11.6687
▁assign	-11.6687
still	-11.6687
▁React	-11.669
▁Victor	-11.6691
▁switching	-11.6691
ttle	-11.6693
▁tr	-11.6693
▁extending	-11.6694
max	-11.6695
▁disclosed	-11.6696
▁suite	-11.6696
▁EC	-11.6699
▁heroin	-11.6699
▁Rodriguez	-11.67
▁accommodation	-11.67
▁completing	-11.67
▁entries	-11.67
▁Ship	-11.6701
count	-11.6702
Pre	-11.6707
love	-11.6711
▁vowed	-11.6712
John	-11.6713
▁2018,	-11.6714
▁streams	-11.6714
▁embraced	-11.6714
▁bout	-11.6722
▁illustration	-11.6723
▁bot	-11.6724
edge	-11.6725
▁consultation	-11.6726
▁Tha	-11.6726
▁pray	-11.6727
”—	-11.6727
▁wa	-11.6727
▁duck	-11.6727
▁Dear	-11.6732
▁Happy	-11.6735
▁fuels	-11.6736
▁bun	-11.674
▁relying	-11.674
wash	-11.6741
▁Brothers	-11.6741
▁Leonard	-11.6743
ugh	-11.6743
fan	-11.6743
adi	-11.6743
▁financially	-11.6745
▁ordinance	-11.6746
▁crawl	-11.6746
▁Official	-11.6748
▁Neo	-11.6749
▁header	-11.675
NE	-11.6752
▁Halo	-11.6752
▁careers	-11.6753
▁bounce	-11.6753
▁anarchist	-11.6753
bet	-11.6756
▁assembled	-11.6756
▁subjected	-11.6759
Yeah	-11.676
▁arbitrary	-11.6762
▁secrets	-11.6764
normal	-11.6765
▁Walmart	-11.677
▁violating	-11.677
▁FIFA	-11.677
▁Rodgers	-11.677
▁Interior	-11.677
▁decisive	-11.677
▁salaries	-11.677
▁Holmes	-11.677
▁disappointment	-11.677
▁Issue	-11.677
▁deportation	-11.6772
zel	-11.6772
anta	-11.6772
▁gi	-11.6773
▁disability	-11.6773
▁Bernard	-11.6774
▁magnetic	-11.6774
▁testified	-11.6774
▁rejection	-11.6775
RY	-11.6777
cup	-11.6777
▁martial	-11.6778
allow	-11.6778
▁considers	-11.6778
▁nationally	-11.6778
selling	-11.678
▁travelling	-11.678
ously	-11.678
hun	-11.678
▁filmed	-11.6781
▁Mack	-11.6782
ager	-11.6784
▁lawsuits	-11.6784
▁Wells	-11.6785
▁recreational	-11.6787
.[9]	-11.6787
ood	-11.6787
▁realise	-11.679
▁deter	-11.679
▁Crimea	-11.679
▁swept	-11.6793
▁sweep	-11.6793
▁Spurs	-11.6793
gni	-11.6793
▁fitting	-11.6793
▁benchmark	-11.6794
▁fold	-11.6797
▁Woman	-11.6797
▁diagnosis	-11.6798
▁mum	-11.6798
▁Honor	-11.68
▁sharply	-11.68
▁fines	-11.6806
▁baseline	-11.6807
▁deliberate	-11.6807
USA	-11.6808
attack	-11.6809
▁Nazis	-11.6809
▁79	-11.681
▁ward	-11.681
▁Porter	-11.6812
▁Representative	-11.6814
▁robotic	-11.6814
▁united	-11.6814
Gu	-11.6814
▁networking	-11.6815
▁Host	-11.6815
▁RA	-11.6815
▁Aleppo	-11.6817
▁Occupy	-11.6817
▁submarine	-11.6817
▁undoubtedly	-11.6817
▁liability	-11.6817
▁Calif	-11.6818
▁Socialist	-11.6818
▁philosophical	-11.6818
ime	-11.6819
▁1977	-11.6819
▁incorrect	-11.6825
▁Listen	-11.6826
▁Hen	-11.6827
▁Welcome	-11.6828
800	-11.6829
▁Les	-11.683
posed	-11.6831
CK	-11.6834
▁parameter	-11.6838
heat	-11.6838
direct	-11.6838
▁Toyota	-11.684
▁safeguard	-11.6841
▁breakthrough	-11.6841
▁Evil	-11.6842
▁banning	-11.6843
▁sur	-11.6845
***	-11.6845
▁Edwards	-11.6846
▁Collection	-11.6848
-35	-11.6848
ici	-11.685
▁Baby	-11.685
▁macro	-11.6851
RR	-11.6853
▁20,000	-11.6853
SF	-11.6854
▁Marcus	-11.6855
▁Days	-11.6856
▁translate	-11.6856
▁namely	-11.6857
▁expectation	-11.6857
bby	-11.6859
▁sweeping	-11.6863
responsibilities	-11.6864
▁[...]	-11.6864
rock	-11.6865
▁schemes	-11.6867
▁incoming	-11.6869
▁Body	-11.6869
▁urgent	-11.687
▁Angela	-11.6875
▁crowded	-11.6875
ologists	-11.6876
▁columnist	-11.6878
▁Luis	-11.6879
▁investigator	-11.6886
▁thrust	-11.6887
▁vector	-11.6887
▁glory	-11.6887
▁implies	-11.6887
▁Creative	-11.6888
▁hedge	-11.6891
▁sisters	-11.6893
▁attackers	-11.6896
▁Rem	-11.6898
tie	-11.6899
elo	-11.6899
▁SH	-11.6902
/3	-11.6904
▁hydro	-11.6906
▁Scha	-11.6906
▁lib	-11.6906
▁Woods	-11.6907
▁tricks	-11.6909
▁chains	-11.6909
ential	-11.6909
▁wreck	-11.691
▁Industry	-11.6911
▁reckless	-11.6911
▁Bannon	-11.6911
▁Finland	-11.6912
Look	-11.6912
▁2001,	-11.6912
▁oven	-11.6913
▁fancy	-11.6915
▁Nad	-11.6915
▁reasonably	-11.6916
▁Commander	-11.6917
▁Sprint	-11.6918
▁arrives	-11.6919
▁worrying	-11.6919
▁effectiveness	-11.6921
▁mg	-11.6921
▁Weekly	-11.6922
▁emphasize	-11.6923
MAN	-11.6923
Jo	-11.6924
▁strings	-11.6925
▁Origin	-11.6925
chain	-11.6926
mine	-11.6928
▁licenses	-11.6928
▁Going	-11.6931
▁Kal	-11.6932
▁symbols	-11.6932
Most	-11.6933
▁ankle	-11.6934
▁Henderson	-11.6934
▁currencies	-11.6934
▁jersey	-11.6934
rb	-11.6935
▁troubled	-11.6938
▁sporting	-11.6939
▁Match	-11.6939
▁Task	-11.6941
Pe	-11.6947
own	-11.6948
green	-11.6949
▁achievements	-11.6949
▁sticking	-11.695
issue	-11.6951
▁oh	-11.6951
▁hi	-11.6951
▁Pla	-11.6952
-30	-11.6952
▁$200	-11.6954
poli	-11.6955
▁Disease	-11.6958
▁adverse	-11.6959
▁BMW	-11.6959
▁Powell	-11.696
nate	-11.696
▁rats	-11.6961
clu	-11.6961
▁beard	-11.6961
▁tender	-11.6962
mos	-11.6964
▁organizers	-11.6964
▁Laden	-11.6966
▁upside	-11.6966
▁sensitivity	-11.6966
▁blessing	-11.6966
TOR	-11.697
▁Screen	-11.6971
▁Complete	-11.6973
quarter	-11.6974
mates	-11.6975
▁manufactured	-11.6976
▁Audi	-11.6977
▁characterized	-11.698
▁Holocaust	-11.6982
▁flour	-11.6982
▁doubts	-11.6982
▁monkey	-11.6983
▁1965	-11.6984
▁feat	-11.6985
▁Baghdad	-11.6986
▁haul	-11.6986
books	-11.6986
▁exploitation	-11.6986
▁beers	-11.6989
▁"[	-11.699
▁87	-11.6991
▁Imp	-11.6991
▁Trail	-11.6993
▁2000,	-11.6996
▁mentions	-11.6996
cca	-11.6997
▁Cra	-11.6997
▁£2	-11.6998
▁Cle	-11.6998
▁Counter	-11.7
▁vol	-11.7
▁tackles	-11.7002
SN	-11.7002
▁Hop	-11.7003
▁undocumented	-11.7006
▁130	-11.7007
▁1971	-11.7008
▁surrender	-11.701
▁Virtual	-11.7012
▁lately	-11.7012
▁Sara	-11.7016
▁Presidential	-11.702
▁Index	-11.702
▁marking	-11.7021
▁sectors	-11.7025
also	-11.7026
▁basement	-11.7027
igo	-11.7028
bee	-11.7029
▁revenge	-11.703
▁indictment	-11.703
▁Launch	-11.703
▁messaging	-11.703
▁dimensions	-11.7035
.[12]	-11.7037
▁credible	-11.7037
▁violate	-11.7039
ann	-11.7039
▁Unless	-11.704
▁suited	-11.7041
▁Ur	-11.7042
▁manages	-11.7043
▁drum	-11.7043
ake	-11.7045
▁creep	-11.7046
cri	-11.7047
▁fist	-11.705
▁miners	-11.7051
▁DR	-11.7051
▁Minneapolis	-11.7054
▁WASHINGTON	-11.7054
▁subscribing	-11.7054
▁Statistics	-11.7054
▁Surface	-11.7054
CNN	-11.7055
▁Kor	-11.7055
▁Champion	-11.7057
rage	-11.7058
▁torn	-11.7059
▁Cru	-11.7067
▁legislators	-11.7068
▁AB	-11.7069
▁vendors	-11.7075
▁disrupt	-11.7076
▁Chancellor	-11.7078
▁Together	-11.7078
▁cocktail	-11.7078
▁idiot	-11.7078
▁Burke	-11.7078
▁precision	-11.7079
▁Generation	-11.708
▁runner	-11.7086
agger	-11.7088
▁cal	-11.709
present	-11.7091
▁kills	-11.7091
-22	-11.7092
▁listened	-11.7092
▁Randy	-11.7092
▁fundamentally	-11.7093
▁Titan	-11.7093
▁proxy	-11.7093
▁wounds	-11.7094
▁Bol	-11.7095
▁ja	-11.7097
▁Person	-11.7099
▁accuse	-11.7102
▁patience	-11.7102
▁seizure	-11.7102
plane	-11.7102
▁vicious	-11.7102
▁discourse	-11.7102
▁Herald	-11.7103
▁Comic	-11.7106
▁fever	-11.7107
▁acc	-11.7108
share	-11.7108
▁costume	-11.7109
▁famously	-11.7109
▁#3	-11.7112
▁stat	-11.7113
▁meter	-11.7114
NES	-11.7115
stro	-11.7122
▁Newcastle	-11.7126
▁casualties	-11.7126
▁punish	-11.7127
▁1964	-11.713
tron	-11.7131
▁manufacture	-11.7132
stat	-11.7134
▁Vir	-11.7136
ault	-11.7136
▁chant	-11.7138
▁McG	-11.7138
▁consulting	-11.714
▁Joint	-11.7142
▁badge	-11.7144
.9%	-11.7145
▁(20	-11.7146
▁overwhelmingly	-11.7146
▁jaw	-11.7146
inger	-11.7148
/19	-11.7149
cin	-11.7149
▁cruel	-11.715
mut	-11.715
▁Relations	-11.715
▁sidewalk	-11.7153
▁Jong	-11.7155
▁radi	-11.7156
lated	-11.7157
▁Made	-11.7157
▁ste	-11.7158
bro	-11.7159
▁turnover	-11.7159
▁donor	-11.716
▁fierce	-11.7164
▁sting	-11.7165
▁Chip	-11.7165
three	-11.7167
▁metric	-11.7168
number	-11.7169
▁25%	-11.717
mouth	-11.7171
▁Sources	-11.7171
AFP	-11.7172
ought	-11.7172
▁83	-11.7174
DB	-11.7174
▁declaring	-11.7175
▁identities	-11.7175
▁malware	-11.7175
▁obesity	-11.7175
▁Indianapolis	-11.7175
error	-11.7175
▁accent	-11.7176
▁Cancer	-11.7176
▁linear	-11.7177
▁Broad	-11.7178
▁Points	-11.7179
▁Deb	-11.7181
▁backlash	-11.7184
▁thorough	-11.7188
rey	-11.719
▁Flu	-11.7192
▁1.4	-11.7195
▁Il	-11.7198
▁Prof	-11.7198
▁contempt	-11.7199
▁relied	-11.7199
▁Scholar	-11.7199
▁MD	-11.7199
▁Alpha	-11.7201
▁Martinez	-11.7201
▁GB	-11.7202
▁obstacles	-11.7203
▁Milan	-11.7205
▁Kil	-11.7208
▁Sche	-11.7208
sburg	-11.7209
▁Af	-11.7212
AF	-11.7213
FP	-11.7214
▁Cell	-11.7216
tori	-11.7218
▁Bow	-11.7218
▁prompt	-11.7219
click	-11.7219
▁Break	-11.7219
▁headset	-11.722
▁tricky	-11.7221
tum	-11.7223
▁pharmaceutical	-11.7223
▁irrelevant	-11.7223
▁nasty	-11.7223
▁Performance	-11.7223
▁stones	-11.7224
▁institutional	-11.7224
▁Chu	-11.7224
pick	-11.7227
youtube	-11.7227
ema	-11.7228
▁objectives	-11.7228
writer	-11.7231
▁Rad	-11.7232
▁booth	-11.7233
▁prayers	-11.7236
cycle	-11.7237
.[13]	-11.7241
mid	-11.7242
▁dangers	-11.7244
Today	-11.7244
▁Training	-11.7244
fri	-11.7244
▁inability	-11.7246
▁arrangements	-11.7248
▁Cabinet	-11.7248
▁autism	-11.7248
▁Agreement	-11.7248
▁Jared	-11.7249
▁handy	-11.7252
▁Bil	-11.7252
▁brewery	-11.7253
zan	-11.7254
mming	-11.7258
ANT	-11.7261
chy	-11.7261
▁backers	-11.7261
▁noble	-11.7262
▁VI	-11.7263
▁DM	-11.7264
▁sketch	-11.7267
nen	-11.7268
▁Buddhist	-11.7272
▁applicable	-11.7272
▁memorable	-11.7272
▁blew	-11.7272
mill	-11.7277
gay	-11.7278
▁lightning	-11.7281
:30	-11.7282
▁maintains	-11.7284
jar	-11.7285
▁Version	-11.7287
▁Princess	-11.7288
dec	-11.7288
Brien	-11.7289
▁Belt	-11.7289
llo	-11.7289
▁PRO	-11.7291
▁Var	-11.7295
graph	-11.7295
may	-11.7295
▁Norman	-11.7296
▁Basic	-11.7297
▁amateur	-11.7297
▁spiral	-11.7297
▁hitter	-11.7298
▁Fel	-11.7298
▁flourish	-11.7298
▁cheat	-11.7298
▁divine	-11.7298
▁separately	-11.7298
▁dies	-11.7298
▁expire	-11.7299
▁Ground	-11.7304
▁Clearly	-11.7307
mol	-11.731
▁Goal	-11.731
▁flawed	-11.731
turn	-11.7312
▁graduated	-11.7312
▁flee	-11.7314
▁LP	-11.7317
=”	-11.7318
yle	-11.732
▁Vatican	-11.7321
▁definitive	-11.7321
▁cryptocurrency	-11.7321
▁Register	-11.7322
unconstitutional	-11.7322
▁Authorities	-11.7322
▁denies	-11.7323
▁suits	-11.7323
▁LE	-11.7323
▁Raw	-11.7325
▁recipes	-11.7326
▁grill	-11.7326
▁sheets	-11.7327
▁+1	-11.7328
▁inventory	-11.7328
azi	-11.7328
▁basket	-11.7328
ía	-11.733
▁81	-11.7331
▁Nik	-11.7331
▁functioning	-11.7331
▁0.8	-11.7331
▁contractors	-11.7332
dell	-11.7337
▁Palmer	-11.7337
▁entertaining	-11.7338
▁sue	-11.7338
eman	-11.7339
▁Chiefs	-11.7341
List	-11.7342
▁organ	-11.7344
▁reviewing	-11.7345
▁Ari	-11.7345
▁Dy	-11.7345
▁sy	-11.7346
[...]
