<unk>	0
<s>	0
</s>	0
�	-3.15267
,	-3.17371
.	-3.30653
▁the	-3.37902
s	-3.56879
'	-3.78721
▁to	-3.80699
▁a	-4.11741
▁of	-4.21849
▁and	-4.39179
▁that	-4.4202
▁is	-4.62776
▁it	-4.6935
▁in	-4.71738
t	-4.84818
▁you	-4.86869
▁	-4.87872
ing	-4.90767
▁this	-4.94126
▁we	-5.05012
▁I	-5.09225
▁for	-5.13577
▁was	-5.26935
n	-5.31961
ed	-5.3548
▁be	-5.39773
▁her	-5.46723
▁on	-5.47384
▁with	-5.49612
▁are	-5.65343
d	-5.67642
▁just	-5.6908
▁like	-5.70057
▁game	-5.74431
▁from	-5.77304
▁have	-5.8167
▁out	-5.82938
▁can	-5.83446
▁he	-5.83917
▁one	-5.85747
▁they	-5.86175
?	-5.86204
▁she	-5.86874
▁as	-5.87069
▁what	-5.87568
▁not	-5.91788
re	-5.92964
▁at	-5.96801
▁all	-5.97447
▁but	-5.97791
ve	-6.008
▁us	-6.06969
▁up	-6.08485
▁so	-6.08496
▁if	-6.0946
▁there	-6.10108
▁about	-6.12903
▁more	-6.12937
But	-6.13835
And	-6.14729
ly	-6.14957
-	-6.18259
I	-6.19938
▁or	-6.21211
m	-6.2289
e	-6.23666
▁been	-6.24065
▁has	-6.24094
▁these	-6.24517
and	-6.24986
▁by	-6.27015
▁his	-6.27034
▁their	-6.30051
▁would	-6.31076
▁your	-6.31325
▁get	-6.33167
▁see	-6.3608
▁time	-6.37045
▁an	-6.38224
▁me	-6.3999
y	-6.4021
▁them	-6.45309
▁also	-6.4568
▁find	-6.45696
▁only	-6.46258
▁into	-6.48844
▁do	-6.51989
▁who	-6.52086
So	-6.53672
,�	-6.5436
▁going	-6.55046
▁were	-6.57131
▁some	-6.57258
��	-6.57581
▁Lana	-6.6016
▁when	-6.61413
▁our	-6.65824
▁because	-6.67403
▁new	-6.68479
▁where	-6.68822
▁And	-6.70119
▁did	-6.70328
The	-6.70559
!	-6.71829
▁does	-6.71977
▁know	-6.73134
▁no	-6.73426
▁But	-6.7562
▁something	-6.76708
▁help	-6.77373
▁The	-6.77395
▁than	-6.78321
▁now	-6.78925
▁will	-6.8004
to	-6.80866
▁over	-6.81755
,��	-6.83978
the	-6.84241
▁go	-6.84467
▁being	-6.84853
▁could	-6.85318
er	-6.85767
A	-6.86045
▁back	-6.86936
▁Lacey	-6.8715
▁first	-6.87165
▁thing	-6.88056
▁think	-6.8819
▁take	-6.88497
▁actually	-6.89002
▁which	-6.89214
▁very	-6.92798
ll	-6.94039
▁video	-6.94759
▁down	-6.96725
It	-6.97301
▁real	-6.97564
▁him	-6.98797
▁isn	-6.99785
▁things	-6.99841
▁other	-7.00094
▁make	-7.00124
▁here	-7.00606
▁It	-7.00712
▁how	-7.00883
▁even	-7.00911
▁don	-7.01478
es	-7.03281
▁my	-7.0738
but	-7.08888
▁really	-7.0993
that	-7.11235
▁had	-7.1206
▁right	-7.12107
▁look	-7.12594
▁A	-7.12983
▁same	-7.14368
▁through	-7.14383
▁why	-7.14412
▁Amanda	-7.14431
it	-7.14628
▁then	-7.15825
▁story	-7.16813
▁Rocio	-7.16871
▁world	-7.16871
▁while	-7.16878
▁start	-7.17162
▁end	-7.17843
▁people	-7.19314
▁much	-7.21921
▁show	-7.22893
▁got	-7.2306
▁games	-7.23684
▁those	-7.24506
▁This	-7.25248
▁s	-7.27196
▁kind	-7.27213
▁made	-7.27229
a	-7.27826
That	-7.29168
▁way	-7.29853
▁Kai	-7.30035
This	-7.32035
▁again	-7.32833
▁might	-7.32838
They	-7.34255
He	-7.35088
▁come	-7.35893
▁off	-7.35929
▁able	-7.36197
▁trying	-7.36209
al	-7.37323
▁part	-7.37407
in	-7.37874
▁park	-7.38808
▁good	-7.38822
▁place	-7.38912
▁name	-7.38919
ty	-7.3985
▁S	-7.40397
r	-7.41153
▁need	-7.41543
▁want	-7.41683
▁around	-7.42022
▁Rambley	-7.42101
In	-7.42733
le	-7.43093
is	-7.44793
▁life	-7.45197
▁Givanium	-7.4525
▁years	-7.46068
▁un	-7.48185
▁say	-7.48279
▁own	-7.48573
▁theory	-7.48677
▁sniffer	-7.49071
▁any	-7.4916
▁too	-7.49236
▁turn	-7.50714
▁mean	-7.51048
▁different	-7.51659
▁ink	-7.52163
ion	-7.53298
We	-7.54645
we	-7.55011
▁big	-7.55512
▁after	-7.564
▁That	-7.56567
▁They	-7.56877
T	-7.57857
▁feel	-7.58471
Well	-7.58601
▁its	-7.58683
▁give	-7.58736
▁little	-7.59231
▁two	-7.59231
▁point	-7.59262
▁missing	-7.59315
▁She	-7.59893
▁character	-7.60245
▁known	-7.60422
▁use	-7.6068
▁2	-7.60681
▁Bendy	-7.6306
▁next	-7.6306
▁instead	-7.63108
▁Riley	-7.63109
▁getting	-7.63205
▁live	-7.63267
▁break	-7.63348
▁We	-7.64737
▁most	-7.66897
▁anything	-7.67079
▁still	-7.67079
▁screen	-7.6709
▁Sam	-7.67092
▁another	-7.67236
▁pret	-7.6876
▁re	-7.69162
of	-7.6923
No	-7.69468
▁used	-7.69837
B	-7.70185
However	-7.70406
▁keep	-7.70429
l	-7.70904
▁final	-7.71032
▁lead	-7.71046
▁full	-7.71051
▁DNA	-7.71226
▁body	-7.71281
▁sure	-7.71333
▁Aggy	-7.71348
▁So	-7.71642
▁number	-7.72177
▁likely	-7.72853
▁mascots	-7.73306
▁seem	-7.73481
like	-7.74709
▁person	-7.74906
▁never	-7.75576
▁put	-7.75661
▁b	-7.76045
▁f	-7.79177
She	-7.79328
▁Molly	-7.80124
▁during	-7.80133
▁machine	-7.80154
▁whole	-7.8035
▁inside	-7.80578
▁He	-7.81181
▁tribe	-7.81488
▁work	-7.8371
S	-7.8417
▁t	-7.84533
▁perfect	-7.84603
▁blood	-7.84885
▁important	-7.84926
▁fact	-7.84928
▁went	-7.8495
▁long	-7.84994
▁every	-7.85001
▁once	-7.85126
▁found	-7.85176
▁hours	-7.85408
▁away	-7.85442
▁brain	-7.86505
▁lot	-7.8684
There	-7.88271
▁figure	-7.89569
▁exactly	-7.89899
▁Hamelin	-7.89905
▁Rebecca	-7.89905
▁remember	-7.89906
▁took	-7.89937
▁cut	-7.9031
▁called	-7.90456
▁update	-7.90611
▁M	-7.90689
▁day	-7.92295
st	-7.93187
or	-7.9337
▁In	-7.93438
on	-7.94079
th	-7.94615
▁least	-7.95145
▁free	-7.95145
▁lore	-7.95198
▁room	-7.95213
▁someone	-7.95263
▁watching	-7.95412
▁ever	-7.95423
▁side	-7.95622
▁thought	-7.95647
▁If	-7.9608
h	-7.96601
▁well	-7.97027
▁line	-7.97827
▁demon	-7.97865
▁doing	-7.98408
▁breaks	-7.99164
▁characters	-7.99273
▁says	-7.99829
Lana	-7.999
▁Indigo	-8.007
▁gonna	-8.007
▁nether	-8.00702
▁cycle	-8.00707
▁said	-8.00711
▁series	-8.00718
▁phone	-8.00728
▁order	-8.00729
▁bring	-8.00739
▁Lloyd	-8.00772
▁case	-8.00826
▁before	-8.00848
▁door	-8.00869
▁whatever	-8.00886
▁hear	-8.0159
▁tells	-8.02668
▁makes	-8.0283
▁moment	-8.03184
▁mascot	-8.03722
▁seems	-8.04678
▁D	-8.04922
til	-8.05001
en	-8.05056
You	-8.05703
When	-8.05781
which	-8.05781
▁try	-8.05875
▁create	-8.06285
▁hard	-8.06583
▁sense	-8.06591
▁Theory	-8.06594
▁saw	-8.06596
▁may	-8.06598
▁always	-8.06618
▁water	-8.06661
▁let	-8.06761
▁building	-8.06865
▁bit	-8.06894
▁today	-8.06951
▁given	-8.07512
ting	-8.07717
▁C	-8.09083
▁seen	-8.09488
▁Game	-8.09883
▁1	-8.1087
D	-8.11959
you	-8.11972
If	-8.12375
▁call	-8.12413
▁B	-8.12576
▁ocean	-8.12833
▁vessel	-8.12833
Thank	-8.12833
▁dead	-8.12833
▁sleep	-8.12842
▁eventually	-8.1285
▁change	-8.12862
▁tried	-8.12905
▁opossum	-8.12914
▁everything	-8.12915
▁far	-8.13001
▁talking	-8.13183
▁T	-8.13214
▁playing	-8.13606
▁both	-8.13647
▁red	-8.13874
▁However	-8.14096
▁guys	-8.14274
se	-8.14315
▁looking	-8.15042
so	-8.15992
▁reason	-8.16273
▁genome	-8.16496
▁human	-8.16546
fter	-8.17052
▁You	-8.18154
▁means	-8.18282
Now	-8.18608
▁learn	-8.18877
▁using	-8.19074
▁demo	-8.19147
▁death	-8.19499
▁detail	-8.19501
▁despite	-8.19507
▁told	-8.19515
▁truth	-8.19524
▁franchise	-8.19531
▁old	-8.19532
▁group	-8.19532
▁suddenly	-8.19532
▁Wooly	-8.19544
▁love	-8.19563
▁ancient	-8.19586
▁happened	-8.19656
▁clearly	-8.19706
able	-8.19707
▁many	-8.19716
▁cause	-8.19734
▁E	-8.20297
▁k	-8.20497
▁ask	-8.2059
▁theorists	-8.20617
▁face	-8.20871
▁plants	-8.21701
▁play	-8.22187
▁c	-8.23363
ile	-8.23451
▁answer	-8.23511
▁doppelganger	-8.23659
▁hand	-8.23692
she	-8.24383
ous	-8.24486
▁sign	-8.24923
c	-8.25467
▁d	-8.25669
with	-8.25721
P	-8.25801
because	-8.25863
▁kill	-8.26033
▁open	-8.26108
ecause	-8.26622
▁website	-8.26642
▁quite	-8.26642
▁job	-8.26646
▁should	-8.26647
▁stop	-8.2665
▁throughout	-8.26676
▁probably	-8.26677
▁Grace	-8.26679
▁dig	-8.26687
▁everyone	-8.26696
▁Ludwig	-8.26736
▁each	-8.26738
▁already	-8.26748
▁specifically	-8.26805
▁become	-8.26805
▁behind	-8.26859
▁forest	-8.27017
u	-8.27528
▁shown	-8.28058
▁monsters	-8.28306
▁words	-8.29014
ince	-8.30037
F	-8.3004
▁bas	-8.30796
▁idea	-8.30943
▁appear	-8.31384
ah	-8.32716
▁walk	-8.33657
▁fel	-8.34294
▁specific	-8.34326
▁Awakening	-8.34335
▁jump	-8.34335
▁great	-8.34336
▁believe	-8.34336
▁enter	-8.34338
▁evil	-8.3434
▁began	-8.34355
▁either	-8.34372
▁stuff	-8.34372
▁escape	-8.34374
▁hidden	-8.34374
▁last	-8.34399
▁portal	-8.34436
twee	-8.34459
▁CRISPR	-8.34568
▁finally	-8.3475
▁less	-8.34807
▁H	-8.34902
▁ends	-8.35541
x	-8.35773
asically	-8.3626
C	-8.36803
at	-8.36933
▁ending	-8.37058
▁creatures	-8.37149
▁bad	-8.37443
▁F	-8.38393
▁stream	-8.38902
▁tell	-8.39007
▁creature	-8.39741
▁am	-8.40033
i	-8.4058
▁sniffers	-8.41338
R	-8.41704
E	-8.41708
▁though	-8.41908
All	-8.42225
▁clear	-8.42449
new	-8.42473
▁Banban	-8.42668
▁enough	-8.42668
▁system	-8.42668
▁quote	-8.42668
▁code	-8.42672
▁cage	-8.42679
▁four	-8.42699
▁second	-8.42708
▁head	-8.42713
▁discover	-8.42717
▁maybe	-8.42737
▁horror	-8.42778
▁indie	-8.42799
▁guess	-8.42804
▁5	-8.42904
ry	-8.43332
▁secrets	-8.44129
▁begins	-8.44374
▁add	-8.44653
▁showing	-8.45485
▁ones	-8.46
4	-8.46012
▁war	-8.46106
ar	-8.47375
▁experiment	-8.48058
8	-8.48271
▁run	-8.48441
▁tape	-8.48627
p	-8.48665
▁word	-8.4893
side	-8.49336
▁plant	-8.49357
▁G	-8.4998
all	-8.50032
an	-8.5047
M	-8.50739
ce	-8.50877
from	-8.50962
▁grow	-8.51132
▁Volta	-8.51759
▁computer	-8.51759
▁futur	-8.51759
▁marathon	-8.51759
▁science	-8.51759
▁yet	-8.51759
▁Drew	-8.51774
▁disturbing	-8.51802
▁Mike	-8.51803
▁Radahn	-8.51803
▁Roulette	-8.51803
▁else	-8.51803
▁past	-8.51807
▁hurt	-8.51843
▁somewhere	-8.51866
▁seeds	-8.51867
▁deep	-8.51882
▁fun	-8.51888
▁true	-8.5193
▁Gent	-8.51932
▁check	-8.5196
▁click	-8.51965
▁torch	-8.52067
▁man	-8.52173
▁lies	-8.52178
▁coming	-8.52274
▁non	-8.52846
▁One	-8.52953
▁best	-8.5325
▁cells	-8.53344
▁eyes	-8.53634
▁looks	-8.53802
ather	-8.53813
▁taken	-8.5437
▁friends	-8.54515
▁experiments	-8.54828
il	-8.54889
▁R	-8.54947
▁reveal	-8.55078
On	-8.55549
O	-8.5558
be	-8.55753
un	-8.56099
ew	-8.56727
0	-8.57001
k	-8.57574
To	-8.58231
▁friend	-8.58599
9	-8.58678
▁mob	-8.58777
▁year	-8.58949
tic	-8.60062
ever	-8.60326
▁mind	-8.60706
What	-8.60912
just	-8.60968
ation	-8.61178
▁car	-8.61435
▁YouTube	-8.61534
te	-8.61613
▁small	-8.61652
▁ARG	-8.61759
▁Chapter	-8.61759
▁bunch	-8.61759
▁community	-8.61759
▁suspicious	-8.61759
▁Joey	-8.61759
▁solve	-8.6176
▁buried	-8.6176
▁better	-8.61761
▁SoFi	-8.61762
▁Park	-8.61763
▁key	-8.61764
▁nothing	-8.61764
▁species	-8.61765
▁came	-8.61767
▁password	-8.61767
▁diary	-8.6177
▁worse	-8.61773
▁Buckshot	-8.61808
▁chance	-8.61808
▁course	-8.61808
▁definitely	-8.61808
▁description	-8.61808
▁himself	-8.61808
▁phrase	-8.61808
▁villain	-8.61808
▁weird	-8.61809
▁living	-8.61812
▁usual	-8.61816
▁completely	-8.61818
▁main	-8.61821
▁per	-8.61825
Hello	-8.61887
▁Henry	-8.61894
▁Salem	-8.61897
▁page	-8.61903
▁attention	-8.61911
▁lost	-8.61918
▁ability	-8.61921
▁across	-8.62038
▁against	-8.62038
▁Or	-8.62401
▁heard	-8.62468
▁killed	-8.62516
▁4	-8.62725
▁done	-8.62914
▁within	-8.63324
▁needed	-8.63413
▁wanted	-8.63541
▁set	-8.63672
▁mak	-8.63677
b	-8.63712
▁feeling	-8.63949
ies	-8.64243
▁sh	-8.64481
▁close	-8.65068
▁sp	-8.65125
▁There	-8.65389
▁streams	-8.65509
▁appears	-8.65787
▁N	-8.6875
▁exist	-8.6884
▁gene	-8.69678
▁color	-8.69797
▁message	-8.69892
▁P	-8.70379
▁O	-8.70616
▁3	-8.70643
▁se	-8.70707
▁heart	-8.70779
our	-8.71084
▁m	-8.71326
for	-8.71858
Maybe	-8.71984
Which	-8.72002
▁tru	-8.7203
ful	-8.72317
▁mix	-8.72318
ical	-8.72331
▁cover	-8.72417
▁anger	-8.72469
into	-8.72508
▁trapped	-8.72789
▁giant	-8.7287
▁half	-8.7287
▁Jent	-8.7287
▁episode	-8.7287
▁left	-8.7287
▁leave	-8.7287
▁particular	-8.7287
▁physical	-8.7287
▁three	-8.7287
▁ago	-8.7287
▁type	-8.7287
▁simple	-8.72871
▁almost	-8.72872
▁vision	-8.72875
▁cult	-8.72877
▁easy	-8.72926
▁having	-8.72926
▁pitcher	-8.72926
▁whether	-8.72926
▁house	-8.72927
▁Pet	-8.72927
▁stick	-8.72928
▁flash	-8.72942
▁connected	-8.72959
▁green	-8.72959
▁site	-8.73003
▁God	-8.73022
▁amount	-8.73022
▁together	-8.73022
▁poem	-8.73022
▁drink	-8.73024
▁special	-8.73064
▁hiding	-8.73094
▁taking	-8.73154
they	-8.73203
are	-8.73404
▁developers	-8.73772
▁walking	-8.74026
▁colour	-8.7448
▁books	-8.7449
▁When	-8.74529
id	-8.74591
▁elements	-8.75581
▁meaning	-8.75669
▁meant	-8.75693
um	-8.75756
▁As	-8.76601
▁others	-8.77448
▁hands	-8.77791
▁doppelgangers	-8.77797
▁Games	-8.78703
▁times	-8.78755
end	-8.79063
est	-8.79789
▁days	-8.79829
▁rest	-8.7985
where	-8.80056
g	-8.80341
ment	-8.81188
ine	-8.81331
ted	-8.81382
▁tail	-8.81587
up	-8.82099
▁report	-8.82242
▁element	-8.82386
H	-8.82431
▁guy	-8.82485
▁monster	-8.82508
▁w	-8.83062
ac	-8.83497
▁r	-8.83889
G	-8.8393
less	-8.84077
▁wants	-8.84362
any	-8.84522
sa	-8.84558
by	-8.84787
get	-8.8483
▁Dre	-8.85256
cording	-8.85318
▁under	-8.85364
▁Disney	-8.85367
▁Internet	-8.8537
▁desert	-8.8537
▁high	-8.8537
▁Impress	-8.8537
▁herself	-8.8537
▁question	-8.8537
▁revenge	-8.8537
▁written	-8.8537
▁wrong	-8.8537
▁parents	-8.8537
▁super	-8.8537
▁throw	-8.8537
▁angry	-8.8537
▁calm	-8.8537
▁large	-8.85371
▁regret	-8.85371
▁existence	-8.85372
▁scientific	-8.85372
▁single	-8.85373
▁night	-8.85373
▁information	-8.85374
▁process	-8.85374
▁classic	-8.85374
▁rise	-8.85375
▁losing	-8.8538
▁po	-8.85381
▁warped	-8.85382
▁Ro	-8.85396
▁te	-8.85402
▁often	-8.8541
▁Steam	-8.85433
▁Charlie	-8.85433
▁DLC	-8.85433
▁Shop	-8.85433
▁became	-8.85433
▁especially	-8.85434
▁summon	-8.85436
▁later	-8.85447
▁black	-8.85459
▁research	-8.85496
▁dealer	-8.85515
▁events	-8.85517
▁literally	-8.85566
▁supposed	-8.85618
▁light	-8.85643
▁email	-8.85657
▁coup	-8.85737
▁ride	-8.8575
▁fan	-8.85869
w	-8.85978
▁spend	-8.85981
▁added	-8.86126
ity	-8.86332
▁changed	-8.8637
ive	-8.86447
▁created	-8.86618
▁fi	-8.8668
▁No	-8.86696
blo	-8.86707
▁sounds	-8.86817
uring	-8.86969
▁eggs	-8.87222
▁turned	-8.87303
o	-8.87702
▁W	-8.87963
▁kids	-8.88035
▁looked	-8.88202
▁ended	-8.8821
▁Ba	-8.88266
▁fit	-8.89014
as	-8.89483
▁pa	-8.89652
▁notes	-8.89869
▁su	-8.89985
▁led	-8.90678
have	-8.90765
▁allow	-8.90773
▁thinking	-8.91135
▁genomes	-8.9144
As	-8.92455
hose	-8.92939
▁circ	-8.9306
he	-8.93303
▁plan	-8.95024
ight	-8.95235
▁seeing	-8.95263
▁follow	-8.9543
ried	-8.95748
▁decide	-8.95778
▁subject	-8.96269
▁version	-8.96283
f	-8.96303
▁flower	-8.96444
▁wall	-8.96477
▁animal	-8.96522
▁eye	-8.96703
spect	-8.96952
▁begin	-8.96964
▁kid	-8.97473
link	-8.97752
ood	-8.97878
com	-8.98006
▁uses	-8.98015
▁expect	-8.98331
ust	-8.985
one	-8.9868
what	-8.98829
Rambley	-8.98849
would	-8.98866
us	-8.98892
was	-8.98901
▁talk	-8.98903
▁watch	-8.98904
right	-8.98905
Or	-8.9892
These	-8.99163
▁list	-8.99356
▁entire	-8.99415
▁literal	-8.9943
▁post	-8.99578
ness	-8.9961
coming	-8.99636
ario	-8.99651
▁daughter	-8.99656
▁employees	-8.99656
▁familiar	-8.99656
▁fishermen	-8.99656
▁mysterious	-8.99656
▁obvious	-8.99656
▁pass	-8.99656
▁performance	-8.99657
▁below	-8.99657
▁myself	-8.99657
▁Room	-8.99658
▁hungers	-8.99659
▁raccoon	-8.99659
▁home	-8.99659
▁gaming	-8.9966
▁short	-8.99661
▁uncover	-8.99661
▁latest	-8.99661
▁nice	-8.99662
▁blend	-8.99662
▁matter	-8.99663
▁regardless	-8.99664
▁alone	-8.99665
▁function	-8.99666
▁track	-8.99673
▁insane	-8.99674
▁meet	-8.99678
▁gate	-8.99678
▁Lost	-8.99681
▁stress	-8.9969
▁nearly	-8.9971
▁somehow	-8.99714
▁ready	-8.99725
▁dark	-8.99725
▁store	-8.99729
▁possible	-8.9973
▁horrible	-8.9973
▁bodies	-8.99732
▁trauma	-8.99736
▁matches	-8.99741
▁TV	-8.99742
▁stand	-8.9976
▁hope	-8.99761
▁gone	-8.99824
▁certainly	-8.99853
▁explain	-8.99857
▁cannot	-8.99877
▁brand	-8.99897
▁sa	-8.99962
▁pay	-8.99975
▁law	-9.00005
▁longer	-9.00008
▁useful	-9.00018
▁hit	-9.00053
▁offer	-9.00132
some	-9.00146
▁Jay	-9.00187
▁designed	-9.00196
▁immediate	-9.0049
▁inky	-9.00492
▁reference	-9.00574
▁Ye	-9.00627
▁contains	-9.00854
▁levels	-9.00854
▁minutes	-9.00855
,000	-9.00915
▁What	-9.00924
▁fire	-9.01057
▁sand	-9.01185
▁members	-9.01333
▁telling	-9.01342
▁along	-9.01509
▁note	-9.0158
▁promise	-9.01828
▁fossils	-9.01892
▁players	-9.02324
L	-9.0297
▁saying	-9.0351
▁messages	-9.03765
▁hey	-9.03815
ug	-9.04103
cent	-9.04143
▁mobs	-9.04258
▁pro	-9.04488
20	-9.04718
uch	-9.05229
2	-9.05508
action	-9.05813
den	-9.06739
▁humans	-9.06772
ated	-9.06797
▁e	-9.07328
▁lines	-9.08282
▁focus	-9.08816
▁de	-9.09291
▁du	-9.0942
ic	-9.09592
ure	-9.09872
▁form	-9.10263
▁co	-9.10276
▁To	-9.11303
▁la	-9.11389
▁overworld	-9.11555
time	-9.11617
Ye	-9.12351
▁apple	-9.12581
▁creator	-9.12679
tries	-9.12874
▁costume	-9.12939
▁girl	-9.12944
▁soul	-9.13103
▁comment	-9.13175
▁cell	-9.13371
ary	-9.1343
▁secret	-9.13468
▁theorist	-9.13528
▁player	-9.13566
way	-9.13616
ro	-9.13652
long	-9.13835
▁drawing	-9.13999
has	-9.15117
▁star	-9.15193
▁Un	-9.15295
N	-9.15374
Instead	-9.15439
▁creat	-9.15446
▁build	-9.15456
fully	-9.15471
when	-9.15523
▁abuse	-9.15693
▁fall	-9.15711
▁destroy	-9.15762
One	-9.15899
▁parts	-9.15907
▁o	-9.15911
these	-9.1592
▁average	-9.16053
▁quick	-9.16071
men	-9.16152
ious	-9.16153
▁match	-9.16227
▁control	-9.16283
▁deal	-9.16288
▁comp	-9.16316
▁reflect	-9.16322
▁safe	-9.16322
▁Uzziah	-9.16322
▁degrees	-9.16322
▁desperate	-9.16322
▁essential	-9.16322
▁itself	-9.16322
▁money	-9.16322
▁original	-9.16322
▁ourselves	-9.16322
▁piece	-9.16322
▁target	-9.16322
▁surface	-9.16322
▁brought	-9.16322
▁memory	-9.16322
▁digging	-9.16323
▁media	-9.16323
▁wonder	-9.16323
Plus	-9.16323
▁approach	-9.16323
▁children	-9.16323
▁corner	-9.16324
▁nail	-9.16324
▁honest	-9.16325
▁resets	-9.16325
▁channel	-9.16325
▁plague	-9.16326
▁chat	-9.16328
▁stay	-9.16328
▁cool	-9.16332
▁yes	-9.16335
▁view	-9.16335
▁fur	-9.16336
▁steal	-9.16337
▁sub	-9.16338
▁wish	-9.1634
▁uncle	-9.16341
▁reach	-9.1635
▁date	-9.16356
▁six	-9.1636
▁realise	-9.16369
▁role	-9.16372
▁fight	-9.16375
▁fate	-9.16376
ish	-9.16393
Even	-9.16395
▁skin	-9.16408
▁several	-9.16409
▁fair	-9.16409
▁Lumen	-9.16411
▁giving	-9.16411
▁writing	-9.16411
▁shift	-9.16411
▁memories	-9.16411
▁return	-9.16422
▁creation	-9.16427
▁initially	-9.16436
▁unlock	-9.16451
ril	-9.16457
▁broken	-9.16465
▁tree	-9.16484
▁trust	-9.16487
▁surprised	-9.16494
▁however	-9.16495
ze	-9.16501
ent	-9.16504
▁common	-9.16504
▁Ap	-9.16518
▁smaller	-9.16527
▁dog	-9.16535
▁send	-9.16548
▁Agamemnon	-9.16563
▁responsible	-9.16563
istic	-9.16565
▁board	-9.16566
▁causing	-9.16568
Meat	-9.16588
▁bed	-9.16622
▁myth	-9.16637
▁ingredients	-9.16638
▁fingers	-9.16641
▁builders	-9.16647
▁mentioned	-9.16652
▁host	-9.16686
can	-9.16725
▁term	-9.16777
▁online	-9.16846
▁care	-9.16873
▁Though	-9.16878
▁Welcome	-9.1688
▁anyone	-9.16891
▁happ	-9.16901
▁interesting	-9.16933
▁happening	-9.17005
▁planarian	-9.17025
▁Why	-9.17044
▁covered	-9.17116
▁falling	-9.17131
▁thanks	-9.17191
▁upon	-9.17269
▁offering	-9.17271
▁For	-9.17273
▁expecting	-9.17372
▁Which	-9.17684
nce	-9.17729
▁These	-9.17784
▁Ring	-9.17796
▁fully	-9.17961
▁streaming	-9.18067
▁worked	-9.18219
▁tasks	-9.18333
▁gra	-9.18493
▁p	-9.18611
▁foo	-9.18643
▁gas	-9.18821
▁attempts	-9.18912
▁dreams	-9.18914
▁happens	-9.18944
▁shows	-9.18947
▁explore	-9.19101
▁drawings	-9.19493
ery	-9.19575
man	-9.19585
▁dis	-9.1997
▁breaking	-9.20318
▁colors	-9.21357
king	-9.21615
ant	-9.21961
▁Mo	-9.21997
ter	-9.22176
this	-9.2251
aking	-9.23409
ces	-9.23616
▁At	-9.2369
▁di	-9.23937
▁st	-9.24243
oo	-9.24339
▁plays	-9.24383
My	-9.24842
▁ba	-9.24866
unt	-9.25733
▁wo	-9.2576
pe	-9.25991
▁notice	-9.26573
po	-9.27631
▁win	-9.27728
▁works	-9.28075
ank	-9.28256
▁9	-9.2885
ers	-9.29151
cial	-9.29172
ng	-9.2963
ch	-9.29932
ho	-9.30313
ial	-9.30946
ow	-9.31286
tandard	-9.31414
▁draw	-9.31738
▁happen	-9.31973
use	-9.32001
▁sacrifice	-9.32159
▁fa	-9.32261
▁g	-9.32478
▁liquid	-9.32564
▁biome	-9.32575
▁round	-9.3267
red	-9.32873
come	-9.33159
▁effect	-9.33193
▁frame	-9.33194
▁attempt	-9.3325
▁dream	-9.33251
▁receive	-9.33283
▁fossil	-9.33288
▁egg	-9.33317
▁book	-9.33463
ian	-9.33639
ally	-9.34366
ol	-9.34558
out	-9.34788
age	-9.34809
work	-9.34865
Is	-9.34911
his	-9.35302
urns	-9.35325
Oh	-9.35345
▁monitor	-9.35354
Finally	-9.35372
▁eat	-9.35437
who	-9.3544
ring	-9.35495
not	-9.35511
back	-9.3552
For	-9.35566
called	-9.35577
Why	-9.35603
more	-9.35611
been	-9.35612
▁bo	-9.35715
▁rid	-9.35718
▁places	-9.35784
▁names	-9.35817
rden	-9.35835
ped	-9.35876
▁V	-9.3608
your	-9.36101
even	-9.36111
▁va	-9.36207
▁whi	-9.36269
▁scienti	-9.36319
▁except	-9.36322
▁innocent	-9.36322
▁purpose	-9.36322
Specifically	-9.36322
phoric	-9.36322
▁Brothers	-9.36322
▁Electronics	-9.36322
▁Entertainment	-9.36322
▁Hole	-9.36322
▁Koni	-9.36322
▁accident	-9.36322
▁account	-9.36322
▁arcade	-9.36322
▁avoid	-9.36322
▁bottom	-9.36322
▁challenge	-9.36322
▁extra	-9.36322
▁guide	-9.36322
▁heaven	-9.36322
▁mirror	-9.36322
▁narrow	-9.36322
▁strange	-9.36322
▁themselves	-9.36322
▁traditional	-9.36322
▁Puddles	-9.36322
▁earth	-9.36322
▁among	-9.36322
▁limit	-9.36322
▁multiple	-9.36323
▁affect	-9.36323
▁shut	-9.36323
▁nerv	-9.36324
▁dress	-9.36324
▁Greek	-9.36324
▁Rabbit	-9.36325
uote	-9.36326
▁data	-9.36326
▁okay	-9.36326
▁Coterie	-9.36326
▁Disneyland	-9.36328
▁underground	-9.36328
▁beginning	-9.36328
▁substance	-9.36328
▁label	-9.36329
▁south	-9.3633
idence	-9.36331
▁self	-9.36331
▁Live	-9.36331
▁woods	-9.36331
▁section	-9.36335
▁Minecraft	-9.36336
▁backstory	-9.36337
▁count	-9.36337
▁logo	-9.3634
▁pee	-9.36344
▁facility	-9.36345
▁cards	-9.36345
▁attach	-9.36346
▁choose	-9.3635
▁please	-9.3635
▁financ	-9.36351
▁doc	-9.36351
▁constantly	-9.36352
▁above	-9.36356
▁bio	-9.36364
▁slowly	-9.36371
udio	-9.36386
▁recent	-9.36394
ories	-9.36409
advantage	-9.36417
▁easier	-9.36432
▁problem	-9.36432
▁reject	-9.36432
▁victim	-9.36432
▁repeat	-9.36432
▁stuck	-9.36434
▁container	-9.36434
▁Nelly	-9.36434
▁running	-9.36442
▁Dark	-9.36444
▁stew	-9.36458
▁closer	-9.36459
▁spine	-9.36469
▁abandoned	-9.36499
ipal	-9.36524
▁scared	-9.36552
▁cloth	-9.36575
▁El	-9.36591
▁suffering	-9.366
antly	-9.366
▁considered	-9.36614
▁corrupt	-9.36621
▁installment	-9.36622
▁Adventurer	-9.36622
▁released	-9.3663
▁song	-9.36631
▁hate	-9.36632
▁heck	-9.3666
▁burn	-9.36664
▁dive	-9.36672
▁skeletons	-9.36718
▁experience	-9.36731
▁noticed	-9.36741
▁lock	-9.36763
▁listening	-9.3678
▁driv	-9.368
ne	-9.36822
▁Our	-9.36827
▁recording	-9.36867
▁react	-9.36946
▁waiting	-9.36962
Get	-9.37057
▁listed	-9.37077
▁expected	-9.37083
▁without	-9.37085
▁rai	-9.37087
▁che	-9.37138
im	-9.37147
▁died	-9.37283
were	-9.37338
▁Instead	-9.37411
icke	-9.37444
▁revealed	-9.37478
▁following	-9.37548
▁Maybe	-9.38015
▁je	-9.38048
▁figured	-9.38054
▁rules	-9.38112
ate	-9.3823
▁ment	-9.38317
▁streamers	-9.38479
Then	-9.38583
ta	-9.38709
▁ne	-9.39124
▁top	-9.39242
▁sit	-9.3944
▁manage	-9.39464
imply	-9.39464
▁effects	-9.39552
▁frames	-9.39552
▁ro	-9.4008
▁keeping	-9.40684
io	-9.4107
▁animals	-9.41133
▁force	-9.415
standard	-9.41602
▁reports	-9.41756
▁genes	-9.4268
aster	-9.42698
ade	-9.42885
dge	-9.42937
alt	-9.43218
llowing	-9.43538
▁tapes	-9.44131
▁Tr	-9.44816
▁move	-9.45259
verse	-9.4542
At	-9.46295
▁answers	-9.4631
▁ga	-9.47305
onic	-9.4747
assive	-9.49051
▁personal	-9.50294
Giv	-9.50527
lying	-9.51019
▁con	-9.5114
▁corp	-9.51246
▁1.	-9.51616
ior	-9.52628
W	-9.52899
ante	-9.52928
▁pla	-9.53176
▁al	-9.53443
rs	-9.53652
▁sim	-9.53987
▁helps	-9.54927
sts	-9.55143
then	-9.55553
▁theme	-9.55829
ulator	-9.57093
▁ha	-9.57102
▁release	-9.57328
▁spirit	-9.5758
▁size	-9.57585
▁yellow	-9.57724
▁pain	-9.57756
▁connection	-9.57959
▁space	-9.57992
▁task	-9.58274
led	-9.58279
▁sound	-9.58323
▁interact	-9.5837
▁member	-9.58434
▁hour	-9.58451
mp	-9.58811
▁log	-9.59022
▁onthe	-9.59031
ions	-9.59093
▁chang	-9.5919
▁prove	-9.59415
▁Her	-9.59503
▁referenc	-9.59647
U	-9.59737
ending	-9.5979
Y	-9.59952
▁mis	-9.60162
ward	-9.60252
▁hunt	-9.60363
10	-9.60374
world	-9.60399
▁speak	-9.60449
Though	-9.60458
Welcome	-9.60459
Jay	-9.60473
CRISPR	-9.60499
behind	-9.60504
Aggy	-9.60513
showing	-9.60513
Givanium	-9.60517
Rocio	-9.60521
while	-9.60521
Amanda	-9.60521
first	-9.60526
▁wait	-9.60526
find	-9.60527
see	-9.60541
about	-9.60564
ink	-9.60726
▁dev	-9.61004
Un	-9.61005
z	-9.61007
▁vi	-9.61085
▁ev	-9.6109
▁certain	-9.61096
▁luck	-9.61112
▁actual	-9.61113
▁tra	-9.61146
▁sniff	-9.612
eople	-9.61273
espite	-9.61291
egardless	-9.61308
▁predict	-9.61316
▁collecti	-9.61319
▁government	-9.61322
▁response	-9.61322
ojan	-9.61322
▁Machine	-9.61322
▁Swiper	-9.61322
▁artificial	-9.61322
▁business	-9.61322
▁chair	-9.61322
▁cognitive	-9.61322
▁defeat	-9.61322
▁earlier	-9.61322
▁encounter	-9.61322
▁example	-9.61322
▁excited	-9.61322
▁explod	-9.61322
▁illusion	-9.61322
▁innocence	-9.61322
▁leaving	-9.61322
▁length	-9.61322
▁mechanic	-9.61322
▁monument	-9.61322
▁mysteries	-9.61322
▁nitrogen	-9.61322
▁picture	-9.61322
▁plenty	-9.61322
▁previous	-9.61322
▁protein	-9.61322
▁regrow	-9.61322
▁roulette	-9.61322
▁school	-9.61322
▁suggest	-9.61322
▁survive	-9.61322
▁tragic	-9.61322
▁unique	-9.61322
▁window	-9.61322
▁yourself	-9.61322
▁Steel	-9.61322
▁Studios	-9.61322
▁Syringian	-9.61322
▁impossible	-9.61322
▁recommend	-9.61322
▁shirt	-9.61322
▁studies	-9.61322
ified	-9.61322
▁flu	-9.61322
▁front	-9.61322
▁therapist	-9.61322
▁threat	-9.61322
Remember	-9.61322
▁salon	-9.61323
▁fear	-9.61323
▁study	-9.61323
▁understand	-9.61323
▁optimiz	-9.61323
▁random	-9.61323
▁alert	-9.61323
▁diner	-9.61323
▁loop	-9.61324
▁saving	-9.61324
▁otherwise	-9.61324
▁Olympic	-9.61325
▁coins	-9.61326
▁agree	-9.61326
ficial	-9.61327
▁failure	-9.61328
▁damage	-9.61328
▁plush	-9.61329
▁underwater	-9.61329
▁fuel	-9.6133
▁breed	-9.61331
▁Paris	-9.61332
iversity	-9.61333
▁crim	-9.61334
kele	-9.61334
▁shotgun	-9.61338
▁continuous	-9.6134
Was	-9.61341
▁ice	-9.61343
▁lab	-9.61344
▁worry	-9.61345
▁trop	-9.61346
▁typically	-9.61349
▁button	-9.61358
▁stem	-9.61358
▁totally	-9.61358
▁delete	-9.61359
evolve	-9.61362
▁music	-9.61366
▁wink	-9.61369
▁referr	-9.61373
▁edit	-9.61374
▁sorry	-9.61375
▁reward	-9.61376
▁worst	-9.61378
▁oh	-9.61383
▁item	-9.61384
▁lose	-9.6139
▁must	-9.61397
▁hint	-9.61404
▁normal	-9.61406
▁drowned	-9.61408
▁19	-9.61417
▁movie	-9.61417
▁meantime	-9.61424
▁Car	-9.61431
▁forgive	-9.61431
▁grass	-9.61443
▁fish	-9.61463
▁expos	-9.61466
▁child	-9.61466
▁Obviously	-9.61467
▁ceiling	-9.61467
▁family	-9.61467
▁voice	-9.61467
▁From	-9.61467
▁address	-9.61468
▁conceal	-9.61468
▁rising	-9.61468
▁visit	-9.61469
▁Revival	-9.61471
▁controll	-9.61472
▁prison	-9.61473
▁million	-9.61474
▁trick	-9.6148
▁studio	-9.61482
ept	-9.61492
▁pick	-9.61497
▁fell	-9.61507
▁faster	-9.61525
iodi	-9.61528
only	-9.61539
Sound	-9.61543
elling	-9.61557
▁bright	-9.61558
▁reality	-9.61573
powerful	-9.61578
▁table	-9.6162
ities	-9.61634
▁sight	-9.61658
ould	-9.61701
▁boy	-9.61703
▁With	-9.61717
▁universe	-9.61717
▁entirely	-9.61769
▁consume	-9.61819
▁gamers	-9.6183
▁wires	-9.61843
▁sacrificed	-9.61844
▁legs	-9.61844
▁protons	-9.61844
▁requires	-9.61846
lt	-9.61858
▁author	-9.6188
tage	-9.61905
▁natural	-9.6192
▁YouTuber	-9.61931
act	-9.61938
▁War	-9.61968
▁style	-9.61975
ized	-9.61983
cy	-9.62013
▁sad	-9.62026
▁abused	-9.62027
rrel	-9.62044
oth	-9.62072
▁Ju	-9.62095
mic	-9.62164
▁Whi	-9.62177
▁won	-9.62186
Cat	-9.62227
lack	-9.6228
▁allowed	-9.62409
▁gri	-9.62632
▁veins	-9.6275
▁canon	-9.63129
▁hero	-9.63334
▁opened	-9.63402
▁miss	-9.63448
▁played	-9.63479
▁age	-9.63595
nding	-9.63668
▁ruins	-9.63689
▁reads	-9.63699
▁beat	-9.63705
▁mentions	-9.63712
▁designs	-9.6374
▁clues	-9.63839
de	-9.63851
▁ways	-9.63945
▁Uni	-9.64086
tract	-9.64505
Some	-9.64545
▁experimenting	-9.64616
▁tool	-9.6465
▁Now	-9.65265
▁arm	-9.65373
▁aw	-9.65409
ores	-9.65918
▁die	-9.66047
▁hell	-9.66206
Not	-9.66409
▁souls	-9.66579
▁comments	-9.66579
Yes	-9.6675
▁IT	-9.66841
▁introduc	-9.67049
▁pr	-9.67194
▁danc	-9.67406
▁restor	-9.67448
▁cra	-9.67486
▁walls	-9.67558
▁lo	-9.6773
▁flowers	-9.68
me	-9.68129
▁spen	-9.68232
▁Sa	-9.68337
▁On	-9.6854
▁bottle	-9.68644
▁ac	-9.69333
5	-9.69505
▁jo	-9.7081
Wh	-9.70853
ome	-9.71053
refore	-9.71684
▁th	-9.72196
her	-9.7225
score	-9.72858
Ca	-9.73394
ck	-9.74055
▁cat	-9.74241
line	-9.74449
sp	-9.74554
▁ni	-9.74576
them	-9.7484
cking	-9.7489
▁ship	-9.75199
ables	-9.7546
▁rage	-9.75517
ced	-9.75578
▁gr	-9.75781
▁reasons	-9.75815
▁La	-9.76321
▁tu	-9.77164
ction	-9.77295
▁demons	-9.79072
uit	-9.79607
▁L	-9.79888
▁pre	-9.79937
day	-9.80185
▁ma	-9.80228
▁wor	-9.80662
▁app	-9.80752
▁reveals	-9.80887
▁lots	-9.81266
sk	-9.81566
Ju	-9.81788
Tak	-9.81958
wing	-9.82041
udade	-9.82451
▁tin	-9.83412
...	-9.83437
ay	-9.83639
▁en	-9.84332
▁bl	-9.84671
▁mo	-9.84721
game	-9.84831
3	-9.86307
▁pri	-9.86526
▁li	-9.86744
▁introduce	-9.87192
ap	-9.87533
▁hi	-9.87669
▁heat	-9.87871
ag	-9.88044
▁imp	-9.89168
▁manag	-9.89286
ue	-9.89522
Ste	-9.89785
▁knows	-9.8986
▁Goo	-9.89895
▁j	-9.90372
▁met	-9.90446
ier	-9.90667
ie	-9.90846
▁design	-9.90884
▁hundred	-9.90935
▁cartoon	-9.90935
▁mention	-9.91033
▁provide	-9.91075
ital	-9.91097
ular	-9.91155
aren	-9.91155
▁depict	-9.91217
la	-9.91284
▁image	-9.91295
▁read	-9.91324
▁vent	-9.91329
▁clue	-9.91452
▁ruin	-9.91467
ium	-9.91486
ying	-9.91495
ortunately	-9.91521
▁rule	-9.91553
wn	-9.91582
▁minute	-9.91647
▁contain	-9.91659
if	-9.91679
▁developer	-9.91699
▁level	-9.91841
rib	-9.9185
▁reg	-9.92112
▁mammal	-9.92247
V	-9.92264
nk	-9.92373
▁Ra	-9.92529
read	-9.92725
▁le	-9.92898
▁apart	-9.92991
▁En	-9.93023
cause	-9.93135
▁rot	-9.93244
Lacey	-9.93571
how	-9.936
had	-9.93619
issue	-9.93627
Like	-9.9371
mammal	-9.93711
How	-9.93724
Although	-9.93737
got	-9.9375
Our	-9.93801
designed	-9.93815
stream	-9.93831
reveal	-9.93832
style	-9.93836
specifically	-9.93837
looking	-9.93842
▁record	-9.93844
click	-9.93847
character	-9.93852
before	-9.93853
Kai	-9.93855
▁interest	-9.93858
why	-9.93873
case	-9.93877
most	-9.93886
around	-9.93904
cut	-9.93904
demo	-9.93934
email	-9.93949
does	-9.93952
▁listen	-9.93954
given	-9.93971
along	-9.93999
off	-9.94008
▁neuro	-9.94025
law	-9.94026
▁attack	-9.94043
ur	-9.94049
▁test	-9.94067
away	-9.94086
▁consider	-9.94145
▁relate	-9.94206
experimenting	-9.94276
▁surprise	-9.94283
scape	-9.9429
also	-9.94299
Ac	-9.94344
term	-9.94345
ign	-9.94349
trying	-9.94378
ach	-9.94385
▁Woo	-9.94388
let	-9.9441
much	-9.94433
▁complete	-9.94434
ater	-9.94445
▁write	-9.94477
▁Ja	-9.94491
▁inspir	-9.94501
▁translat	-9.94535
icipa	-9.94536
ific	-9.94548
▁ex	-9.94554
ecrets	-9.94563
something	-9.94581
seems	-9.94608
▁Lo	-9.94629
▁tab	-9.94641
nother	-9.9465
electronics	-9.94655
▁loose	-9.94655
▁murder	-9.94655
Originally	-9.94656
curity	-9.94656
orizon	-9.94656
▁Caesar	-9.94656
▁Celsius	-9.94656
▁FNAF	-9.94656
▁GAME	-9.94656
▁Poppy	-9.94656
▁Saturday	-9.94656
▁advice	-9.94656
▁angrier	-9.94656
▁beyond	-9.94656
▁biggest	-9.94656
▁comfort	-9.94656
▁comparison	-9.94656
▁dangerous	-9.94656
▁deprivation	-9.94656
▁difference	-9.94656
▁download	-9.94656
▁easily	-9.94656
▁empty	-9.94656
▁environment	-9.94656
▁fascinating	-9.94656
▁flammable	-9.94656
▁frequen	-9.94656
▁goddess	-9.94656
▁hoglin	-9.94656
▁hormone	-9.94656
▁horrifying	-9.94656
▁hubris	-9.94656
▁huge	-9.94656
▁impair	-9.94656
▁influence	-9.94656
▁juicy	-9.94656
▁occasionally	-9.94656
▁oxytocin	-9.94656
▁perspective	-9.94656
▁piglins	-9.94656
▁possess	-9.94656
▁potential	-9.94656
▁proper	-9.94656
▁properties	-9.94656
▁relationship	-9.94656
▁represent	-9.94656
▁robot	-9.94656
▁sepia	-9.94656
▁solution	-9.94656
▁solving	-9.94656
▁spider	-9.94656
▁sternum	-9.94656
▁strategy	-9.94656
▁structures	-9.94656
▁succeed	-9.94656
▁tackle	-9.94656
▁technology	-9.94656
▁temperature	-9.94656
▁territory	-9.94656
▁treasure	-9.94656
▁underneath	-9.94656
▁valleys	-9.94656
▁visual	-9.94656
▁wolf	-9.94656
▁Fortress	-9.94656
▁bacteria	-9.94656
▁conquer	-9.94656
▁downfall	-9.94656
▁internet	-9.94656
▁kindergarten	-9.94656
▁puzzle	-9.94656
▁replied	-9.94656
▁staff	-9.94656
▁Someone	-9.94656
▁animatronic	-9.94656
▁burst	-9.94656
▁completing	-9.94656
▁content	-9.94656
▁pull	-9.94656
▁third	-9.94656
▁Troy	-9.94656
▁clean	-9.94656
▁fortress	-9.94656
▁proceed	-9.94656
▁bird	-9.94656
▁disliked	-9.94656
▁location	-9.94656
▁travel	-9.94656
▁admit	-9.94656
▁submit	-9.94656
▁keen	-9.94656
▁speech	-9.94656
▁coents	-9.94656
▁decipher	-9.94656
▁hold	-9.94657
▁result	-9.94657
▁months	-9.94657
▁remov	-9.94657
benefit	-9.94657
cket	-9.94657
▁Nothing	-9.94657
▁disappearance	-9.94657
▁license	-9.94657
▁valu	-9.94657
▁joke	-9.94657
▁search	-9.94657
▁shoot	-9.94657
▁slept	-9.94657
▁overlook	-9.94657
▁ticket	-9.94658
▁lockdown	-9.94658
▁tough	-9.94658
▁presum	-9.94658
▁enjoy	-9.94658
▁finish	-9.94658
▁progress	-9.94659
▁register	-9.94659
▁sneak	-9.94659
▁straight	-9.94659
▁outfits	-9.94659
▁Sammy	-9.94659
▁history	-9.94659
▁fungus	-9.94659
▁pipe	-9.94659
▁Skat	-9.9466
▁collab	-9.9466
▁tip	-9.9466
▁boom	-9.94661
▁2022	-9.94661
▁loud	-9.94661
▁potion	-9.94661
▁THE	-9.94662
▁counterparts	-9.94662
▁nostalgic	-9.94662
▁cipher	-9.94662
▁credit	-9.94662
▁2023	-9.94663
▁decrease	-9.94663
early	-9.94663
▁cold	-9.94663
▁pressure	-9.94663
Official	-9.94663
▁access	-9.94663
▁sequence	-9.94664
▁hatch	-9.94664
▁activate	-9.94664
▁dropped	-9.94665
▁explosion	-9.94665
▁selection	-9.94665
▁blame	-9.94666
▁neck	-9.94668
▁deletion	-9.94669
▁drop	-9.94669
source	-9.9467
▁Ghost	-9.9467
▁Corporation	-9.94673
▁drug	-9.94673
Also	-9.94674
ttery	-9.94675
▁wake	-9.94675
▁magical	-9.94675
▁glass	-9.94676
▁donors	-9.94679
earn	-9.9468
▁aware	-9.94684
▁fisherman	-9.94684
▁alive	-9.94685
▁trailer	-9.94685
▁class	-9.94686
▁wil	-9.94686
▁pure	-9.94687
▁smoke	-9.94688
▁warned	-9.94688
▁insert	-9.9469
▁hole	-9.94691
▁darkness	-9.94694
lway	-9.94694
▁Forest	-9.94696
▁dub	-9.94698
▁ob	-9.94699
▁waking	-9.94701
Sorry	-9.94704
Sadly	-9.94704
▁fake	-9.94705
▁pause	-9.94706
▁stopped	-9.94707
▁imagine	-9.9471
text	-9.94711
▁roughly	-9.94712
▁map	-9.94712
▁clim	-9.94712
▁pun	-9.94712
▁health	-9.94713
▁personality	-9.94713
▁armor	-9.94713
Of	-9.94714
sharing	-9.94714
▁spike	-9.94714
▁mood	-9.94715
▁passive	-9.94718
▁lion	-9.94718
▁firing	-9.9472
Thing	-9.94736
▁senti	-9.9474
parat	-9.94742
▁city	-9.94747
▁announced	-9.94747
▁Run	-9.94748
▁towards	-9.94759
▁demonic	-9.9476
▁slight	-9.94761
▁required	-9.94762
OR	-9.94763
top	-9.94763
pping	-9.94765
housand	-9.94769
▁prof	-9.94771
▁established	-9.9478
▁poor	-9.9478
bon	-9.94784
▁nightmare	-9.94787
▁success	-9.94787
ument	-9.94795
stant	-9.94796
▁directly	-9.94808
▁18	-9.94808
▁gotta	-9.94813
▁passion	-9.94816
▁meta	-9.94821
▁stage	-9.94826
▁father	-9.94834
▁severe	-9.94852
▁violent	-9.94863
▁cry	-9.94864
▁Core	-9.94864
▁crawl	-9.94867
▁rooster	-9.94867
▁Gasket	-9.94867
▁fox	-9.94867
▁Mojang	-9.94867
▁bathroom	-9.94867
▁beneath	-9.94867
▁club	-9.94867
▁combination	-9.94867
▁platform	-9.94867
▁syringian	-9.94867
▁current	-9.94867
▁automat	-9.94867
▁entity	-9.94867
▁desi	-9.94869
▁shutdown	-9.94869
▁Amy	-9.94873
▁graph	-9.94875
▁Matt	-9.94875
▁step	-9.94875
▁further	-9.94878
▁achievement	-9.94882
▁warning	-9.94885
▁meters	-9.94897
▁spot	-9.94898
▁serve	-9.9492
▁scene	-9.9492
▁rotting	-9.94921
▁letting	-9.94927
itive	-9.9493
▁stable	-9.9495
▁deceive	-9.94957
seen	-9.94965
▁mad	-9.94969
▁breathing	-9.94978
▁anymore	-9.94988
▁poet	-9.94988
▁opposite	-9.94992
▁failed	-9.94998
▁15	-9.94998
inal	-9.95014
▁tall	-9.95019
▁teaser	-9.95037
▁Ga	-9.95045
▁writer	-9.95047
camp	-9.95051
▁bro	-9.95078
▁absolute	-9.95094
▁apparently	-9.95094
icul	-9.95097
ect	-9.951
ctly	-9.95127
▁dad	-9.95144
Bra	-9.95175
did	-9.9518
▁Dea	-9.95188
▁disappearing	-9.9519
▁crash	-9.95191
▁min	-9.95194
▁twisted	-9.95206
▁quickly	-9.95207
▁protect	-9.95232
▁office	-9.95237
▁anyway	-9.95244
▁successful	-9.95244
▁unlike	-9.95262
▁whenever	-9.95267
ill	-9.95274
▁ground	-9.95275
lead	-9.953
healers	-9.95305
▁ult	-9.95327
take	-9.9539
▁States	-9.95418
▁motives	-9.95418
▁limbs	-9.95418
▁requests	-9.95422
aught	-9.95432
▁posters	-9.95446
▁art	-9.95463
atter	-9.95467
taining	-9.95516
ise	-9.95556
▁chase	-9.95564
▁state	-9.95568
▁closely	-9.95575
▁Like	-9.9561
▁Although	-9.95631
▁mode	-9.95642
▁How	-9.95644
ea	-9.95653
shots	-9.95767
taking	-9.95771
▁friendly	-9.95848
▁Ac	-9.95869
▁diet	-9.9587
▁ja	-9.95879
▁destroyed	-9.95886
▁speaking	-9.95895
its	-9.95896
nts	-9.95916
▁reading	-9.96084
▁killer	-9.96097
▁10	-9.96103
▁catch	-9.96138
▁fil	-9.96161
▁medicin	-9.96172
▁goal	-9.96226
▁eating	-9.96249
Nail	-9.96253
stone	-9.96307
using	-9.96349
▁gen	-9.9638
▁Finally	-9.96385
▁mixed	-9.96563
Again	-9.9667
hy	-9.9671
▁soon	-9.96715
▁Tom	-9.96725
▁issues	-9.96729
▁pets	-9.96743
▁neighbors	-9.96747
▁collectibles	-9.96747
▁symbols	-9.96748
▁pigs	-9.96752
▁Us	-9.96754
own	-9.96762
ques	-9.96817
▁sun	-9.9686
ma	-9.96875
ley	-9.96955
▁fill	-9.97021
atu	-9.9705
▁mostly	-9.97135
▁leader	-9.9716
▁hid	-9.97195
▁rats	-9.97333
▁continues	-9.97415
real	-9.97534
▁user	-9.97593
30	-9.97753
▁mammals	-9.98117
▁images	-9.98131
ite	-9.98165
shape	-9.98195
ir	-9.98253
▁mess	-9.98275
▁heal	-9.98281
▁cop	-9.98573
Tok	-9.98716
▁contra	-9.9878
sport	-9.9904
tain	-9.99205
pho	-9.99442
▁connections	-9.99546
▁sims	-9.99617
ations	-9.99724
el	-9.9977
▁100	-9.99914
stance	-10.0016
lly	-10.0027
▁K	-10.0028
▁20	-10.0041
▁paint	-10.005
bed	-10.0061
aming	-10.0094
▁blin	-10.0124
put	-10.0134
▁newly	-10.0145
▁area	-10.0147
Mo	-10.0162
cess	-10.0164
there	-10.0237
▁girls	-10.0244
▁costumes	-10.0244
▁encourag	-10.0256
23	-10.0274
son	-10.0307
start	-10.0345
ber	-10.0358
light	-10.0382
▁operat	-10.0386
ding	-10.0392
▁versions	-10.0393
▁subjects	-10.0394
▁follows	-10.04
▁mou	-10.0423
kill	-10.0444
signed	-10.0445
block	-10.0476
▁loca	-10.0518
▁turning	-10.052
▁tobe	-10.0576
akeup	-10.0584
J	-10.0592
going	-10.0601
creepy	-10.0614
▁sn	-10.0618
ail	-10.0619
ame	-10.063
▁exists	-10.0705
shed	-10.072
▁mal	-10.0725
▁Pi	-10.0759
lies	-10.0759
▁Ma	-10.082
iny	-10.0862
int	-10.0869
▁plane	-10.093
Your	-10.0969
War	-10.0971
▁generate	-10.0974
ake	-10.0989
▁achieve	-10.099
▁improve	-10.0992
▁convince	-10.0999
▁runs	-10.1011
hine	-10.1179
▁tie	-10.1181
▁continu	-10.1194
ia	-10.1217
▁ideas	-10.1333
▁breathe	-10.134
ase	-10.1462
▁entr	-10.149
cks	-10.15
▁ca	-10.1598
als	-10.1598
ightmare	-10.1614
▁dia	-10.1622
serv	-10.1764
▁continue	-10.18
▁men	-10.1839
lpline	-10.1848
tting	-10.198
▁moments	-10.2016
mak	-10.2057
▁pop	-10.2084
▁mu	-10.21
co	-10.2137
working	-10.2152
ths	-10.217
▁ta	-10.222
socia	-10.2259
ned	-10.2297
here	-10.231
j	-10.2314
pers	-10.2317
▁mov	-10.2343
ick	-10.2398
▁dr	-10.2429
coat	-10.2431
base	-10.245
ph	-10.2454
ther	-10.2468
▁brains	-10.2555
▁describ	-10.2607
▁Son	-10.2624
ded	-10.2676
▁tribes	-10.2764
ix	-10.2769
▁sco	-10.278
▁vers	-10.278
▁ward	-10.2854
am	-10.2876
▁Ri	-10.2888
▁creep	-10.2907
izing	-10.2994
locks	-10.3033
tive	-10.3058
▁basic	-10.3081
▁numbers	-10.3123
lash	-10.3162
tty	-10.317
▁dec	-10.3175
tation	-10.3299
▁dist	-10.3303
ult	-10.3305
yo	-10.3315
ud	-10.3331
mor	-10.3448
bu	-10.3474
▁lives	-10.3478
ort	-10.3544
ground	-10.3549
▁conf	-10.3556
▁comm	-10.356
▁da	-10.3582
other	-10.3589
ga	-10.3643
no	-10.3654
▁h	-10.3655
sion	-10.3668
▁tri	-10.368
arms	-10.3716
mo	-10.3718
▁updat	-10.3761
race	-10.3775
▁scar	-10.3777
ster	-10.3814
que	-10.3815
cle	-10.3817
K	-10.383
art	-10.3832
Help	-10.387
tend	-10.3879
▁roa	-10.3879
000	-10.3906
▁Co	-10.3937
die	-10.3955
▁streamer	-10.3968
ably	-10.3983
aw	-10.3996
Here	-10.4053
les	-10.4083
tional	-10.4086
don	-10.4095
▁skull	-10.4098
▁muscle	-10.4098
▁respond	-10.4098
▁organ	-10.4107
▁letter	-10.4114
mmediately	-10.4123
▁Vi	-10.4125
▁symbol	-10.4133
▁neighbor	-10.4133
▁pig	-10.4134
▁collectible	-10.4134
▁pet	-10.4137
▁vein	-10.4154
ace	-10.4155
▁Do	-10.417
▁Pa	-10.4205
hem	-10.4228
Ki	-10.423
lit	-10.4239
ook	-10.424
▁stare	-10.4242
▁experienc	-10.4243
▁mi	-10.4245
▁thank	-10.4252
ches	-10.4258
ble	-10.4261
bit	-10.4262
body	-10.4266
nyone	-10.4291
▁clo	-10.4297
cross	-10.4298
ory	-10.4298
experiment	-10.4299
dies	-10.4301
▁issue	-10.4308
▁U	-10.4311
▁refer	-10.4317
▁sea	-10.432
▁bar	-10.4324
playing	-10.4327
▁fail	-10.4329
rack	-10.4331
▁chas	-10.4331
Lea	-10.4332
turn	-10.4333
encourage	-10.4346
includ	-10.4362
Except	-10.4362
cons	-10.4364
gle	-10.4364
found	-10.4368
▁stat	-10.437
protect	-10.4372
▁confus	-10.4373
natural	-10.4376
With	-10.4376
universe	-10.4376
flowers	-10.4377
installment	-10.4379
Adventurer	-10.4379
mething	-10.4379
corrupt	-10.4379
experience	-10.4379
▁defen	-10.4379
fish	-10.438
point	-10.438
Agamemnon	-10.438
board	-10.438
responsible	-10.438
breaking	-10.438
causing	-10.4381
▁disappear	-10.4381
explain	-10.4381
interesting	-10.4381
brand	-10.4381
life	-10.4382
ball	-10.4382
supposed	-10.4382
together	-10.4383
God	-10.4383
ality	-10.4383
drink	-10.4383
begin	-10.4383
poem	-10.4383
amount	-10.4383
through	-10.4383
meaning	-10.4383
lost	-10.4383
wanted	-10.4383
fill	-10.4383
Henry	-10.4384
horror	-10.4384
una	-10.4384
Ludwig	-10.4384
human	-10.4385
ancient	-10.4385
check	-10.4385
walk	-10.4385
Salem	-10.4385
Lloyd	-10.4385
room	-10.4385
figure	-10.4385
instead	-10.4386
Riley	-10.4386
water	-10.4386
opossum	-10.4386
help	-10.4387
video	-10.4387
fic	-10.4387
actually	-10.4389
without	-10.4389
saying	-10.439
▁suffer	-10.439
online	-10.439
page	-10.4391
someone	-10.4392
portal	-10.4392
could	-10.4394
fun	-10.4396
list	-10.4396
▁carry	-10.4396
beat	-10.4397
▁consum	-10.4398
shows	-10.4399
Let	-10.4401
deep	-10.4402
▁betray	-10.4405
▁treat	-10.4405
gue	-10.4409
everything	-10.441
▁vo	-10.4414
▁abandon	-10.4414
▁planaria	-10.4415
each	-10.4418
known	-10.4419
▁twi	-10.4424
tual	-10.4424
Gent	-10.4428
▁suppose	-10.4429
▁par	-10.4431
▁provid	-10.4432
▁dep	-10.4432
▁Y	-10.4434
▁metaphorical	-10.4438
▁exp	-10.4439
tually	-10.4442
▁sudden	-10.4444
icted	-10.4445
▁bi	-10.4446
▁exact	-10.4446
Ha	-10.4446
▁Night	-10.4447
dict	-10.4449
host	-10.445
▁contro	-10.445
▁power	-10.445
▁near	-10.4451
▁twist	-10.4452
▁glitch	-10.4453
fra	-10.4454
acrificing	-10.4454
uddenly	-10.4456
ypically	-10.446
hroughout	-10.446
isherman	-10.4461
nitially	-10.4461
▁techni	-10.4461
leep	-10.4461
inecraft	-10.4462
▁vari	-10.4462
omesticat	-10.4462
bjects	-10.4464
▁stri	-10.4464
accoon	-10.4464
▁hung	-10.4464
ontrol	-10.4464
creas	-10.4464
▁Christ	-10.4464
▁horri	-10.4465
uestionnaire	-10.4466
▁birth	-10.4466
▁friendship	-10.4466
▁interview	-10.4466
Klubnika	-10.4466
▁aggression	-10.4466
▁available	-10.4466
▁bride	-10.4466
▁double	-10.4466
▁excitement	-10.4466
▁invit	-10.4466
▁library	-10.4466
▁manipulation	-10.4466
▁mycelium	-10.4466
▁narrative	-10.4466
▁speculat	-10.4466
▁sugar	-10.4466
▁swip	-10.4466
▁whale	-10.4466
,1998	-10.4466
Honestly	-10.4466
Lawrence	-10.4466
Nicholas	-10.4466
Olympian	-10.4466
Please	-10.4466
Ugh	-10.4466
VidCon	-10.4466
conditions	-10.4466
ggers	-10.4466
involv	-10.4466
misfortune	-10.4466
novation	-10.4466
oftware	-10.4466
portrait	-10.4466
struggle	-10.4466
▁118	-10.4466
▁131389145.	-10.4466
▁Alpha	-10.4466
▁Arikson	-10.4466
▁Audrey	-10.4466
▁Circles	-10.4466
▁Discord	-10.4466
▁Explorer	-10.4466
▁Hamilton	-10.4466
▁Inferno	-10.4466
▁Piper	-10.4466
▁Ship	-10.4466
▁Theorist	-10.4466
▁Wardrobe	-10.4466
▁Wilson	-10.4466
▁absent	-10.4466
▁acacia	-10.4466
▁accept	-10.4466
▁accomplish	-10.4466
▁accurate	-10.4466
▁adorable	-10.4466
▁advertis	-10.4466
▁afloat	-10.4466
▁algorithm	-10.4466
▁appease	-10.4466
▁arrange	-10.4466
▁battle	-10.4466
▁behaviour	-10.4466
▁brief	-10.4466
▁capable	-10.4466
▁capture	-10.4466
▁chamber	-10.4466
▁chaos	-10.4466
▁chips	-10.4466
▁cockroaches	-10.4466
▁coexisted	-10.4466
▁complicated	-10.4466
▁critter	-10.4466
▁cuff	-10.4466
▁defibrillation	-10.4466
▁defibrillator	-10.4466
▁development	-10.4466
▁doubt	-10.4466
▁empower	-10.4466
▁escaping	-10.4466
▁excavat	-10.4466
▁exciting	-10.4466
▁explanation	-10.4466
▁extinct	-10.4466
▁extreme	-10.4466
▁folktale	-10.4466
▁ignored	-10.4466
▁incredibl	-10.4466
▁inevitable	-10.4466
▁interpretation	-10.4466
▁manifest	-10.4466
▁manipulate	-10.4466
▁motivation	-10.4466
▁neuropathways	-10.4466
▁omnivores	-10.4466
▁optimism	-10.4466
▁philosophy	-10.4466
▁pirates	-10.4466
▁program	-10.4466
▁project	-10.4466
▁pursu	-10.4466
▁push	-10.4466
▁recipe	-10.4466
▁recogni	-10.4466
▁regenerati	-10.4466
▁remarks	-10.4466
▁remind	-10.4466
▁risk	-10.4466
▁rodents	-10.4466
▁scheme	-10.4466
▁script	-10.4466
▁sentences	-10.4466
▁snippet	-10.4466
▁sonnet	-10.4466
▁spiritual	-10.4466
▁sponsor	-10.4466
▁straightforward	-10.4466
▁surgery	-10.4466
▁theSkunk	-10.4466
▁thedeath	-10.4466
▁thedeveloper	-10.4466
▁trouble	-10.4466
▁tunnel	-10.4466
▁typing	-10.4466
▁umbrella	-10.4466
▁upload	-10.4466
▁waistcoat	-10.4466
surgical	-10.4466
▁Donald	-10.4466
▁ambition	-10.4466
▁marketing	-10.4466
▁mutant	-10.4466
▁nutrients	-10.4466
decode	-10.4466
jittery	-10.4466
▁1998.	-10.4466
▁Aphrodite	-10.4466
▁Artemis	-10.4466
▁Either	-10.4466
▁bound	-10.4466
▁cheek	-10.4466
▁complex	-10.4466
▁grief	-10.4466
▁infinity	-10.4466
▁major	-10.4466
▁signature	-10.4466
▁supplier	-10.4466
▁symbolism	-10.4466
▁unaware	-10.4466
▁yourselves	-10.4466
ehavior	-10.4466
▁Italian	-10.4466
▁daily	-10.4466
▁priva	-10.4466
▁stretch	-10.4466
▁support	-10.4466
▁sweet	-10.4466
Gigi	-10.4466
▁CRT	-10.4466
▁concern	-10.4466
▁deceit	-10.4466
▁enticing	-10.4466
▁materials	-10.4466
▁strong	-10.4466
caption	-10.4466
waiver	-10.4466
▁Souls	-10.4466
▁mystery	-10.4466
▁transfer	-10.4466
▁transform	-10.4466
▁volta	-10.4466
▁analyse	-10.4466
▁cabinet	-10.4466
▁glory	-10.4466
smiling	-10.4466
▁dissolv	-10.4466
▁sparks	-10.4466
▁transport	-10.4466
▁positive	-10.4466
▁root	-10.4466
finite	-10.4466
▁Diner	-10.4466
▁Time	-10.4466
▁arousal	-10.4466
▁priests	-10.4466
▁worship	-10.4466
▁Latin	-10.4466
▁strider	-10.4466
thrive	-10.4466
ubble	-10.4466
▁Lady	-10.4466
▁cosmet	-10.4466
▁wander	-10.4466
alyz	-10.4466
▁shelter	-10.4466
▁bowl	-10.4466
▁photo	-10.4466
▁theorizing	-10.4466
Out	-10.4466
▁Jer	-10.4466
London	-10.4466
▁curtain	-10.4466
distorted	-10.4466
▁adapt	-10.4466
▁liability	-10.4466
▁resources	-10.4466
athlete	-10.4466
▁harm	-10.4466
▁kitten	-10.4466
Drink	-10.4466
▁Dolls	-10.4466
▁situation	-10.4466
▁gallery	-10.4466
▁technically	-10.4466
▁center	-10.4466
▁biology	-10.4466
Bible	-10.4466
▁realism	-10.4466
merge	-10.4466
▁busy	-10.4466
▁charge	-10.4466
▁subscribe	-10.4466
▁department	-10.4466
▁severalflash	-10.4466
▁Playtime	-10.4466
▁dehydrat	-10.4466
▁apparel	-10.4466
ontinent	-10.4466
▁imm	-10.4466
▁facade	-10.4466
▁boot	-10.4466
▁popular	-10.4466
etched	-10.4466
▁cursed	-10.4466
▁seams	-10.4466
▁segment	-10.4466
▁varieties	-10.4466
▁voicemail	-10.4466
undra	-10.4466
▁transplant	-10.4466
Science	-10.4466
▁iom	-10.4467
▁2009	-10.4467
▁leap	-10.4467
▁Christian	-10.4467
▁burial	-10.4467
▁decade	-10.4467
▁scream	-10.4467
▁groom	-10.4467
▁vault	-10.4467
▁mythology	-10.4467
▁invent	-10.4467
▁mistake	-10.4467
zard	-10.4467
▁seque	-10.4467
▁snifflet	-10.4467
▁Blood	-10.4467
▁yea	-10.4467
▁context	-10.4467
necks	-10.4467
phant	-10.4467
▁impressive	-10.4467
▁range	-10.4467
▁bomb	-10.4467
▁investigator	-10.4467
▁gritty	-10.4467
▁remain	-10.4467
backfire	-10.4467
▁powerup	-10.4468
▁built	-10.4468
▁planning	-10.4468
▁prideful	-10.4468
▁align	-10.4468
▁drum	-10.4468
▁21	-10.4468
▁grasp	-10.4468
▁unstable	-10.4468
▁June	-10.4468
▁trip	-10.4468
▁artistic	-10.4468
▁Parlor	-10.4468
kay	-10.4468
▁predictions	-10.4468
▁sherd	-10.4469
▁corr	-10.4469
▁statement	-10.4469
▁banne	-10.4469
sume	-10.4469
▁2010	-10.4469
▁playthrough	-10.4469
▁Twit	-10.4469
▁fem	-10.4469
▁edge	-10.4469
Domesticat	-10.4469
frustration	-10.447
▁mark	-10.447
▁occu	-10.447
scramble	-10.447
ology	-10.447
▁crew	-10.447
▁savannah	-10.447
▁Rush	-10.447
chel	-10.447
▁gang	-10.447
▁shopping	-10.447
▁compet	-10.447
▁beast	-10.4471
▁suitabl	-10.4471
lick	-10.4471
▁domain	-10.4471
▁vibe	-10.4471
▁string	-10.4472
wood	-10.4472
▁creative	-10.4472
name	-10.4472
▁sold	-10.4472
▁afterlife	-10.4472
▁goop	-10.4473
▁fiction	-10.4473
▁hair	-10.4473
▁enemy	-10.4473
ppo	-10.4474
▁worth	-10.4474
▁Rus	-10.4474
▁patch	-10.4475
▁pest	-10.4475
▁gap	-10.4475
▁assi	-10.4476
atch	-10.4476
▁rare	-10.4476
▁prep	-10.4476
▁pill	-10.4476
EN	-10.4476
▁practically	-10.4476
▁caffeine	-10.4476
▁manageable	-10.4476
▁succession	-10.4477
▁sacrificing	-10.4477
lves	-10.4477
▁reign	-10.4477
▁glitches	-10.4478
latter	-10.4478
▁scr	-10.4478
▁mor	-10.4478
▁pots	-10.4479
▁era	-10.4479
versi	-10.4479
▁eaten	-10.4479
▁appar	-10.448
▁guar	-10.448
actic	-10.448
▁gameplay	-10.4481
▁bag	-10.4481
adventure	-10.4482
ourne	-10.4482
▁merch	-10.4482
▁replaced	-10.4483
▁flesh	-10.4483
▁Eng	-10.4483
idden	-10.4484
▁sort	-10.4484
▁void	-10.4484
▁direct	-10.4485
cipated	-10.4485
▁sheet	-10.4485
▁rebell	-10.4485
▁translates	-10.4486
▁bank	-10.4486
▁pen	-10.4486
▁swing	-10.4486
pation	-10.4486
▁fleshy	-10.4486
▁path	-10.4487
lish	-10.4487
▁nation	-10.4487
▁stum	-10.4487
▁via	-10.4487
▁confirmed	-10.4488
▁workers	-10.4488
tility	-10.4488
▁vast	-10.4488
▁American	-10.4489
▁requested	-10.4489
cific	-10.4489
▁teacher	-10.4489
▁rebellion	-10.4489
▁HE	-10.4489
▁chest	-10.4489
▁files	-10.449
▁impress	-10.4491
▁everywhere	-10.4491
▁share	-10.4491
lemen	-10.4492
▁tease	-10.4492
▁shove	-10.4492
▁doom	-10.4492
verything	-10.4493
agon	-10.4495
▁boss	-10.4495
rics	-10.4495
successful	-10.4496
teen	-10.4497
disrepair	-10.4497
▁dam	-10.4498
▁useless	-10.4498
▁copy	-10.4499
ense	-10.4499
▁flip	-10.45
▁bone	-10.45
lic	-10.45
dom	-10.45
▁present	-10.45
▁laughing	-10.4501
▁arriving	-10.4501
▁connecting	-10.4501
▁sent	-10.4501
▁gold	-10.4501
▁Ne	-10.4502
ifying	-10.4502
▁anywhere	-10.4502
▁notably	-10.4502
▁cord	-10.4503
▁strat	-10.4503
▁splice	-10.4503
▁convert	-10.4503
▁pride	-10.4503
mediums	-10.4503
▁equ	-10.4504
▁ultimately	-10.4504
▁surprising	-10.4504
▁Africa	-10.4504
▁Fahrenheit	-10.4504
▁chapter	-10.4504
▁favourite	-10.4504
▁lesson	-10.4504
▁choice	-10.4504
▁archway	-10.4504
▁bigger	-10.4504
▁Male	-10.4504
▁famous	-10.4504
▁favorite	-10.4504
▁Dora	-10.4504
▁born	-10.4504
▁productive	-10.4504
▁discussed	-10.4505
Actually	-10.4505
▁fashion	-10.4506
▁inform	-10.4506
dium	-10.4507
▁inhabit	-10.4507
eign	-10.4507
▁flat	-10.4508
▁cata	-10.4509
erial	-10.451
▁trappedin	-10.4511
▁cities	-10.4511
▁devil	-10.4511
▁victory	-10.4511
▁aboutLacey	-10.4513
claim	-10.4513
▁wide	-10.4514
▁lucky	-10.4514
▁apt	-10.4514
Normally	-10.4517
▁combined	-10.452
Games	-10.452
▁mission	-10.4521
Inside	-10.4521
▁buy	-10.4521
reak	-10.4521
▁tid	-10.4521
sniffer	-10.4522
▁pal	-10.4524
spirations	-10.4526
▁betrayed	-10.4527
▁treated	-10.4527
▁makeup	-10.4531
▁metaphorically	-10.4531
itch	-10.4532
▁teased	-10.4533
easure	-10.4534
▁chok	-10.4534
general	-10.4534
capita	-10.4536
olly	-10.454
ple	-10.4542
▁nati	-10.4544
▁arrow	-10.4545
▁ahead	-10.4545
▁awhole	-10.4545
▁metal	-10.4546
really	-10.4549
▁lure	-10.4551
space	-10.4551
▁downside	-10.4552
Medicine	-10.4552
▁defend	-10.4553
▁blue	-10.4553
▁younger	-10.4554
partner	-10.4554
▁hot	-10.4554
▁press	-10.4556
toxin	-10.4557
▁debt	-10.4559
▁display	-10.4559
▁Hell	-10.4561
▁failing	-10.4562
▁feet	-10.4562
▁confusing	-10.4563
▁carrying	-10.4564
▁attacked	-10.4566
▁cost	-10.4567
▁gy	-10.4568
▁char	-10.4569
▁neuron	-10.4569
▁Except	-10.457
▁land	-10.457
▁Let	-10.457
▁critical	-10.457
▁abuser	-10.4572
▁minu	-10.4573
now	-10.4575
need	-10.4577
▁related	-10.4578
▁quali	-10.458
▁bark	-10.458
▁Cen	-10.4581
many	-10.4583
▁options	-10.4585
clusive	-10.4588
▁ju	-10.4588
Nobody	-10.4588
cto	-10.4588
iring	-10.4589
▁identi	-10.4589
▁miner	-10.4593
Nab	-10.4594
▁wit	-10.4597
spans	-10.4601
▁coffins	-10.4602
▁products	-10.4603
▁weeks	-10.4603
▁rainbows	-10.4603
▁efforts	-10.4603
▁parallels	-10.4603
▁colleagues	-10.4603
▁blow	-10.4605
▁referred	-10.4607
▁fee	-10.4607
stal	-10.4608
telling	-10.461
well	-10.4612
floral	-10.4612
▁scares	-10.4615
very	-10.4618
▁pit	-10.4622
▁Fin	-10.4625
▁testing	-10.4625
▁venting	-10.4626
▁averaged	-10.4628
uddy	-10.4631
amed	-10.4633
▁reliv	-10.4635
▁act	-10.4636
cked	-10.4637
pm	-10.4637
▁bare	-10.4638
ntities	-10.464
met	-10.4641
▁decisions	-10.4642
▁ball	-10.465
▁i	-10.4654
Mea	-10.4659
▁experienced	-10.466
clock	-10.4666
▁height	-10.467
▁activ	-10.4677
rop	-10.4681
▁includ	-10.4685
▁fishing	-10.4686
▁hunting	-10.4688
ark	-10.4696
OV	-10.4697
hang	-10.4697
▁goingon	-10.4699
Hi	-10.4702
▁air	-10.4726
▁hat	-10.4732
▁St	-10.4736
truck	-10.4742
▁cance	-10.4747
▁Bu	-10.4751
▁monitoring	-10.4753
land	-10.4756
ister	-10.4759
▁ph	-10.4761
roller	-10.4776
eth	-10.4779
ard	-10.4786
▁cook	-10.4786
▁nor	-10.4796
▁Oh	-10.4808
▁angered	-10.4812
rag	-10.4815
▁rings	-10.4819
▁existed	-10.4823
▁psycholog	-10.4823
alter	-10.4823
▁young	-10.4826
▁Jo	-10.4828
▁spe	-10.4832
Dea	-10.4835
▁perfectly	-10.4842
▁letters	-10.4846
▁organs	-10.4847
▁responds	-10.4847
▁muscles	-10.4847
▁skulls	-10.4847
▁Fre	-10.485
▁prow	-10.4876
▁town	-10.4889
▁retr	-10.4894
▁locate	-10.4899
▁ring	-10.492
▁wear	-10.4928
▁sk	-10.4929
ien	-10.4931
▁grown	-10.495
▁Ch	-10.4956
hed	-10.4957
▁themThey	-10.496
ctors	-10.4986
tten	-10.4986
ibl	-10.4989
▁differently	-10.4993
fortunately	-10.4999
box	-10.5011
days	-10.5017
mail	-10.5017
▁slipp	-10.5039
Vir	-10.5044
▁newer	-10.5061
inner	-10.5065
games	-10.5079
▁depicts	-10.5103
▁cartoons	-10.5104
▁hundreds	-10.5104
▁learned	-10.5108
▁provides	-10.5116
▁doll	-10.5121
rying	-10.5194
mindless	-10.5201
ey	-10.5214
▁Not	-10.5228
▁users	-10.5234
▁craft	-10.5239
reading	-10.5263
▁deb	-10.5269
▁canal	-10.5269
▁lived	-10.5278
reck	-10.5293
nds	-10.5329
Does	-10.5343
nary	-10.5351
▁thegame	-10.5351
background	-10.536
Whi	-10.5361
▁spaces	-10.5369
▁yellows	-10.537
▁sizes	-10.537
▁spirits	-10.5371
▁releases	-10.5374
38	-10.5394
ears	-10.5416
New	-10.5439
▁upIt	-10.5508
earing	-10.554
▁meal	-10.5561
▁tops	-10.5633
▁rounds	-10.5644
▁liquids	-10.5646
▁biomes	-10.5647
▁sacrifices	-10.5652
▁draws	-10.5656
▁receiv	-10.5672
Nile	-10.5721
set	-10.5737
▁Dang	-10.5793
▁Ad	-10.5798
orse	-10.5841
Step	-10.5842
times	-10.587
▁shell	-10.5899
fit	-10.5906
gain	-10.5928
▁creators	-10.5932
▁apples	-10.5933
▁fly	-10.5942
▁An	-10.5949
ang	-10.5984
rous	-10.6019
eeds	-10.6024
Sure	-10.6078
▁aside	-10.6103
▁dri	-10.6117
▁bru	-10.6134
▁pl	-10.6221
▁sus	-10.6256
▁plans	-10.6263
▁bla	-10.6273
▁decides	-10.6278
▁allows	-10.6377
ge	-10.638
▁overworldThe	-10.64
▁god	-10.6583
li	-10.6585
▁tails	-10.6586
▁sho	-10.6618
▁cla	-10.6629
▁201	-10.6648
▁describe	-10.6736
▁cu	-10.674
ating	-10.6743
imulator	-10.6812
▁Soudad	-10.6838
rew	-10.6856
ought	-10.6957
▁hon	-10.7012
rium	-10.7057
▁rat	-10.7074
tree	-10.7106
worm	-10.7178
ra	-10.7214
▁helped	-10.7242
Sun	-10.7263
apply	-10.7264
far	-10.7317
lied	-10.7326
vital	-10.7357
▁dar	-10.7366
▁appreciat	-10.7372
orporation	-10.7431
oration	-10.7437
Whe	-10.7454
oofy	-10.7486
▁floo	-10.7524
ans	-10.7533
▁gu	-10.754
▁pi	-10.7613
▁poppe	-10.7635
▁prov	-10.7715
Fin	-10.7749
fl	-10.7812
▁noticeabl	-10.7817
▁mass	-10.7991
ru	-10.7995
ars	-10.8018
sia	-10.8078
ended	-10.8121
▁parti	-10.8139
▁wrap	-10.8217
lower	-10.8237
lay	-10.8271
▁mar	-10.8302
Tho	-10.8373
▁gun	-10.8388
▁slow	-10.8396
▁bu	-10.8484
▁ki	-10.8487
anger	-10.8569
14	-10.8613
rch	-10.8618
personally	-10.8665
ipped	-10.8718
raged	-10.8785
ask	-10.8827
▁Butthe	-10.8878
▁breath	-10.8936
cal	-10.8952
eren	-10.9136
▁appreciate	-10.938
shock	-10.9394
▁rev	-10.9401
▁flo	-10.9415
▁202	-10.9501
log	-10.9537
oid	-10.9559
ances	-10.9581
rab	-10.9588
▁prom	-10.9613
▁fac	-10.9677
▁convinc	-10.9721
rath	-10.9734
▁improv	-10.9738
▁achiev	-10.9738
▁dare	-10.9761
▁realize	-10.9771
▁generat	-10.9807
pr	-10.9811
▁ho	-10.9841
pse	-10.9906
▁Cha	-10.9983
▁Gi	-11.0001
fore	-11.0034
▁closes	-11.0038
planet	-11.0081
▁inhi	-11.0137
15	-11.0242
om	-11.0294
La	-11.0388
ured	-11.0418
dding	-11.0427
ance	-11.0466
▁forgo	-11.0525
Make	-11.0758
▁bottl	-11.0982
▁thi	-11.0983
ruise	-11.1123
▁lie	-11.1262
▁cl	-11.1277
pace	-11.1321
fi	-11.1378
▁operate	-11.1384
▁cho	-11.1495
dicate	-11.1524
esides	-11.1682
rry	-11.1705
hat	-11.1767
▁Wa	-11.1776
ain	-11.1793
▁encourage	-11.192
▁simulat	-11.1928
lot	-11.2061
▁ski	-11.208
▁ran	-11.2161
▁conc	-11.2181
aid	-11.2182
ab	-11.2205
▁explor	-11.2223
▁promis	-11.2387
See	-11.2426
coloured	-11.2431
▁200	-11.2637
eading	-11.264
▁realiz	-11.2743
fy	-11.2839
▁rever	-11.2854
ontrast	-11.2897
▁soci	-11.2926
ence	-11.2982
▁spo	-11.3043
scop	-11.3046
ounding	-11.305
ada	-11.3056
pent	-11.3099
Me	-11.3108
Do	-11.3127
▁sc	-11.3225
▁fla	-11.3235
port	-11.3273
lipped	-11.3284
arm	-11.3311
eep	-11.3334
ken	-11.3363
▁fr	-11.338
zz	-11.3415
hi	-11.3439
▁shap	-11.3539
doctor	-11.3545
settl	-11.3582
▁psychologi	-11.3603
op	-11.3616
skate	-11.3646
▁wa	-11.3676
▁op	-11.371
▁fri	-11.3715
founder	-11.3747
ke	-11.3757
ceived	-11.3765
apped	-11.3769
▁discuss	-11.3791
▁wr	-11.3821
▁roll	-11.3827
▁teach	-11.3848
▁Bri	-11.386
▁sprin	-11.3862
lock	-11.3882
bina	-11.3926
ctivit	-11.3942
oker	-11.3958
planarians	-11.3976
living	-11.3981
hap	-11.4028
updates	-11.4043
upon	-11.405
eak	-11.406
success	-11.4067
Game	-11.4068
app	-11.4078
branc	-11.409
▁request	-11.4096
niffer	-11.4117
▁flora	-11.412
ppy	-11.412
▁effort	-11.4122
▁colleague	-11.4122
▁parallel	-11.4122
▁rainbow	-11.4124
Fi	-11.4125
▁week	-11.4125
▁decision	-11.4126
oving	-11.4127
▁require	-11.4129
starter	-11.4148
▁limb	-11.4154
▁motive	-11.4157
rk	-11.4157
▁State	-11.4158
▁usefulI	-11.4158
▁conclu	-11.4161
ddy	-11.4163
▁wire	-11.4168
▁proton	-11.4169
▁skeleton	-11.4176
▁leg	-11.4177
▁scare	-11.4179
lood	-11.4179
▁inclu	-11.4179
▁finger	-11.4188
▁teas	-11.4193
ident	-11.4196
head	-11.4202
▁critic	-11.4203
ressed	-11.422
pronoun	-11.4233
icles	-11.4235
reepy	-11.4236
authorit	-11.4243
build	-11.4246
▁product	-11.4247
Medicin	-11.4247
▁lur	-11.4251
▁coffin	-11.4253
whole	-11.4262
Every	-11.4262
▁speci	-11.4266
▁blu	-11.4267
rrow	-11.4267
heck	-11.4268
play	-11.4268
pain	-11.4268
seem	-11.4274
▁cau	-11.4278
gin	-11.4282
Ge	-11.4284
▁aff	-11.4285
bsolute	-11.4285
pparently	-11.4285
nyway	-11.4286
uck	-11.4288
ormally	-11.4288
bility	-11.4294
ttention	-11.4294
lready	-11.4298
though	-11.4301
give	-11.4301
verage	-11.4303
▁belo	-11.431
esearcher	-11.4311
▁ingredient	-11.4313
bout	-11.4316
rty	-11.4319
▁hur	-11.4323
▁connect	-11.4324
▁opposit	-11.4326
Gree	-11.4327
▁doingso	-11.4329
ba	-11.433
regard	-11.4333
member	-11.4333
confirm	-11.4333
cycl	-11.4333
constant	-11.4333
eels	-11.4334
ingredient	-11.4334
coffin	-11.4334
flow	-11.4335
▁audi	-11.4336
▁produc	-11.4337
ative	-11.4339
place	-11.4339
iated	-11.4341
know	-11.4341
ib	-11.4341
summ	-11.4341
▁mod	-11.4347
builder	-11.4351
▁lip	-11.4351
nger	-11.4352
▁natur	-11.4353
▁poster	-11.4356
friend	-11.4356
▁rebel	-11.4357
▁tim	-11.4357
▁hop	-11.4361
cra	-11.4364
ounds	-11.4365
power	-11.4368
conf	-11.4368
equ	-11.4368
learned	-11.4368
grown	-11.4369
author	-11.4369
wide	-11.4369
scar	-11.4369
metaphorically	-11.4369
victory	-11.4369
Africa	-11.4369
Fahrenheit	-11.4369
bigger	-11.4369
choice	-11.4369
combined	-11.4369
favorite	-11.4369
archway	-11.4369
chapter	-11.4369
devil	-11.4369
favourite	-11.4369
pride	-11.4369
direct	-11.4369
flesh	-11.4369
famous	-11.4369
mission	-11.4369
related	-11.4369
surprising	-11.4369
Dora	-11.437
decisions	-11.437
fashion	-11.4371
▁conver	-11.4372
born	-11.4373
younger	-11.4374
lips	-11.4375
Jo	-11.4375
▁laugh	-11.4376
consum	-11.4377
▁arriv	-11.4377
Co	-11.4377
tails	-11.4377
writer	-11.4378
twisted	-11.4378
fox	-11.4378
Gasket	-11.4378
Mojang	-11.4378
achievement	-11.4378
automat	-11.4378
bathroom	-11.4378
beneath	-11.4378
club	-11.4378
combination	-11.4378
current	-11.4378
further	-11.4378
platform	-11.4378
syringian	-11.4378
graph	-11.4378
rooster	-11.4378
shutdown	-11.4378
warning	-11.4378
crawl	-11.4378
inspir	-11.4378
teaser	-11.4378
Matt	-11.4379
contain	-11.4379
scene	-11.4379
level	-11.4379
cover	-11.4379
icate	-11.4379
1	-11.4379
desi	-11.438
▁violen	-11.438
trauma	-11.438
words	-11.4381
clues	-11.4382
Obviously	-11.4382
address	-11.4382
conceal	-11.4382
family	-11.4382
prison	-11.4382
voice	-11.4382
yellow	-11.4382
million	-11.4382
child	-11.4382
From	-11.4382
release	-11.4382
boy	-11.4382
ceiling	-11.4382
Amy	-11.4383
▁sigh	-11.4383
special	-11.4384
problem	-11.4384
reject	-11.4384
victim	-11.4384
animals	-11.4384
Nelly	-11.4384
easier	-11.4384
running	-11.4385
genes	-11.4385
tapes	-11.4385
▁visi	-11.4385
over	-11.4385
creator	-11.4385
Revival	-11.4386
repeat	-11.4386
theorist	-11.4386
broken	-11.4386
expecting	-11.4386
giving	-11.4386
writing	-11.4386
secret	-11.4386
memories	-11.4386
repair	-11.4386
colors	-11.4386
shift	-11.4386
rising	-11.4386
mentioned	-11.4386
drawing	-11.4386
bodies	-11.4387
certainly	-11.4387
horrible	-11.4387
possible	-11.4387
fossils	-11.4387
Lumen	-11.4387
monster	-11.4387
Charlie	-11.4387
DLC	-11.4387
became	-11.4387
plants	-11.4387
created	-11.4387
dealer	-11.4388
Shop	-11.4388
message	-11.4388
connected	-11.4388
having	-11.4388
whether	-11.4388
rotting	-11.4388
green	-11.4388
usual	-11.4388
two	-11.4388
definitely	-11.4388
Buckshot	-11.4388
against	-11.4388
description	-11.4388
himself	-11.4388
phrase	-11.4388
villain	-11.4388
step	-11.4388
weird	-11.4388
Radahn	-11.4389
Mike	-11.4389
Roulette	-11.4389
second	-11.4389
maybe	-11.4389
year	-11.4389
stuff	-11.4389
creatures	-11.4389
probably	-11.4389
either	-11.4389
everyone	-11.439
Gen	-11.439
franchise	-11.439
group	-11.439
clearly	-11.439
mascot	-11.439
brain	-11.439
several	-11.439
Hamelin	-11.439
Rebecca	-11.439
important	-11.439
breaks	-11.4391
Steam	-11.4391
chance	-11.4391
screen	-11.4391
course	-11.4391
little	-11.4391
dad	-11.4391
▁stra	-11.4391
anything	-11.4391
tribe	-11.4391
machine	-11.4391
book	-11.4392
easy	-11.4392
▁importan	-11.4392
kind	-11.4392
order	-11.4392
hours	-11.4393
summon	-11.4393
flash	-11.4394
stuck	-11.4394
Pet	-11.4394
keep	-11.4394
▁disturb	-11.4394
entity	-11.4395
▁advan	-11.4395
height	-11.4396
face	-11.4396
initially	-11.4396
aria	-11.4396
Grace	-11.4397
discover	-11.4397
Dark	-11.4397
anymore	-11.4397
mob	-11.4398
happ	-11.4398
pitcher	-11.4398
doing	-11.4398
faster	-11.4398
▁figur	-11.4399
house	-11.44
cities	-11.44
ability	-11.44
attention	-11.4401
final	-11.4401
will	-11.4402
already	-11.4402
productive	-11.4402
black	-11.4404
hidden	-11.4404
pop	-11.4405
ersonally	-11.4406
phone	-11.4406
▁America	-11.4407
ultimately	-11.4408
replace	-11.441
ashes	-11.4411
▁abus	-11.4412
friendly	-11.4413
people	-11.4413
gone	-11.4413
bright	-11.4413
▁establish	-11.4414
meters	-11.4414
else	-11.4415
always	-11.4415
bring	-11.4416
▁broke	-11.4418
good	-11.4418
story	-11.4418
▁drown	-11.4419
▁machin	-11.4419
▁gree	-11.442
especially	-11.442
▁scree	-11.442
▁combine	-11.4424
later	-11.4424
pro	-11.4425
TV	-11.4425
whatever	-11.4425
tors	-11.4427
torch	-11.4427
think	-11.4428
stick	-11.4431
ultimate	-11.4431
fan	-11.4432
replac	-11.4432
productiv	-11.4433
remember	-11.4435
ig	-11.4435
ki	-11.4436
still	-11.4438
operate	-11.4439
▁iskno	-11.4441
▁caffein	-11.4441
▁rough	-11.4442
▁imagin	-11.4443
▁nightmar	-11.4444
wor	-11.4444
▁choos	-11.4445
▁pleas	-11.4445
▁initial	-11.4445
▁victor	-11.4446
▁enem	-11.4446
▁practical	-11.445
▁abilit	-11.445
their	-11.445
▁delet	-11.4451
▁facilit	-11.4451
▁Ramble	-11.4451
▁scen	-11.4452
dig	-11.4452
▁suff	-11.4453
▁resta	-11.4454
▁disco	-11.4454
avannah	-11.4455
emb	-11.4455
ramble	-11.4456
▁announce	-11.4456
call	-11.4456
pose	-11.4456
hotgun	-11.4456
maller	-11.4457
▁practic	-11.4457
ustration	-11.4458
ikes	-11.4458
▁develope	-11.4458
ashion	-11.4459
says	-11.4459
▁mamm	-11.4459
ecision	-11.4459
curs	-11.4459
riend	-11.446
ehind	-11.446
evival	-11.446
talking	-11.446
ords	-11.446
alem	-11.446
quired	-11.446
possum	-11.4461
▁magic	-11.4461
▁investigat	-11.4461
ody	-11.4461
ltimately	-11.4461
ccup	-11.4461
▁explosi	-11.4462
▁selecti	-11.4462
studio	-11.4462
▁milli	-11.4462
elieve	-11.4462
ipher	-11.4462
nteresting	-11.4462
oppelgangers	-11.4463
isturbing	-11.4463
ounterparts	-11.4463
▁nostalgi	-11.4463
hannel	-11.4463
Scien	-11.4463
affe	-11.4463
ainbow	-11.4463
yself	-11.4464
scribe	-11.4464
▁stab	-11.4464
lympic	-11.4464
▁colla	-11.4464
eplaced	-11.4464
▁gla	-11.4464
lanaria	-11.4464
hydrat	-11.4464
erformance	-11.4464
erfect	-11.4464
▁savi	-11.4464
activat	-11.4464
▁artist	-11.4464
▁yell	-11.4465
xactly	-11.4465
affeine	-11.4465
iately	-11.4465
q	-12.7207
v	-12.7208
